<unk>	0
<s>	0
</s>	0
▁và	-4.39167
▁có	-4.58477
▁của	-4.68916
▁là	-4.71418
▁trong	-4.81987
▁các	-4.88326
▁một	-4.95296
▁không	-4.96918
▁được	-4.97641
▁cho	-4.9809
▁	-4.99499
▁người	-5.00689
▁với	-5.03179
▁ở	-5.10868
▁khi	-5.24964
▁những	-5.29416
▁để	-5.3017
▁công	-5.37368
"	-5.41266
▁đến	-5.41715
▁từ	-5.42861
▁"	-5.44677
▁thể	-5.44717
▁năm	-5.46714
▁này	-5.48978
▁nhiều	-5.54328
▁vào	-5.56785
▁đã	-5.63833
▁trên	-5.6515
▁ra	-5.70164
▁tại	-5.70196
▁cũng	-5.71196
▁đó	-5.72496
▁thành	-5.73367
▁sẽ	-5.75921
▁đầu	-5.76703
▁nhà	-5.77442
▁ngày	-5.79353
▁khách	-5.79415
▁về	-5.79834
▁sau	-5.80595
▁như	-5.80885
▁theo	-5.8232
▁đồng	-5.83358
▁làm	-5.85214
:	-5.85371
▁nước	-5.86434
▁ảnh	-5.88315
▁tôi	-5.88485
▁hơn	-5.89039
▁bị	-5.89754
▁nhất	-5.90573
▁ông	-5.91447
▁học	-5.92183
▁du	-5.93762
▁động	-5.96528
▁quốc	-5.96566
▁gia	-5.97824
▁lại	-6.01307
▁số	-6.0142
▁đi	-6.01858
▁phải	-6.02282
▁hàng	-6.02537
▁chỉ	-6.0341
▁việc	-6.04058
▁hai	-6.05108
▁hiện	-6.06204
▁đường	-6.09191
▁sự	-6.09889
▁điểm	-6.11172
▁trường	-6.12045
▁nhưng	-6.12056
▁còn	-6.12656
▁đây	-6.13132
▁giá	-6.13477
▁nam	-6.13923
▁cơ	-6.16828
▁thế	-6.17998
▁cao	-6.19012
▁sinh	-6.19411
▁quan	-6.19527
▁định	-6.19732
▁trung	-6.19753
▁trước	-6.21083
▁nhân	-6.21527
▁anh	-6.21932
▁hội	-6.23201
▁điều	-6.24653
▁bạn	-6.24783
▁con	-6.24952
▁thời	-6.24963
▁qua	-6.27557
▁nói	-6.30797
▁chính	-6.31049
▁tháng	-6.31608
▁bình	-6.3348
▁bộ	-6.34345
▁nên	-6.34381
▁giới	-6.35711
▁biết	-6.3583
▁do	-6.36325
▁cầu	-6.38589
▁phát	-6.38754
▁cùng	-6.39851
▁thủ	-6.40025
▁hợp	-6.41983
▁viên	-6.42172
▁nhận	-6.42215
▁việt	-6.42873
▁thông	-6.44835
▁đang	-6.45272
▁vì	-6.45475
▁thực	-6.46102
▁lên	-6.46208
▁kết	-6.46346
▁tăng	-6.47946
▁ăn	-6.48994
▁họ	-6.49075
▁đại	-6.49798
▁lớn	-6.50036
▁cách	-6.50383
▁xe	-6.50423
▁dụng	-6.52729
▁hành	-6.5274
▁lịch	-6.53245
▁bệnh	-6.53294
▁mỹ	-6.53806
▁lý	-6.54925
▁khu	-6.55495
▁tiếp	-6.55602
▁mới	-6.56086
▁hay	-6.56822
▁sản	-6.57265
▁khác	-6.57344
▁tiền	-6.58128
▁dân	-6.58253
▁thường	-6.58473
▁khoảng	-6.58728
▁nội	-6.59175
▁trình	-6.59792
▁hình	-6.60036
▁tự	-6.6022
▁mà	-6.60903
▁giải	-6.60963
▁phòng	-6.61913
▁tới	-6.61926
▁bằng	-6.61976
▁cả	-6.62062
▁thống	-6.62922
▁tế	-6.63267
▁chủ	-6.649
▁độ	-6.65391
▁an	-6.65442
▁dự	-6.66799
▁tạo	-6.66871
▁ngoài	-6.66997
▁lượng	-6.67566
▁nơi	-6.68059
▁gian	-6.69155
▁ba	-6.69308
▁tập	-6.69473
▁vị	-6.69853
▁lần	-6.69961
▁năng	-6.70327
▁hoặc	-6.70728
▁thu	-6.71158
▁vụ	-6.71244
▁gần	-6.71364
▁xuất	-6.71575
▁triệu	-6.71745
▁rất	-6.72161
▁tuổi	-6.72601
▁phố	-6.72895
▁nếu	-6.73902
▁biển	-6.74081
▁chiến	-6.74304
▁tp	-6.7501
▁đội	-6.75194
▁phương	-6.75638
▁nhiên	-6.75886
▁vẫn	-6.75914
▁hà	-6.76267
▁thấy	-6.76759
▁chức	-6.77332
▁toàn	-6.77535
▁rằng	-6.77724
▁cuộc	-6.77903
▁lực	-6.78216
▁cần	-6.78661
n	-6.78942
▁thứ	-6.79268
▁trận	-6.8019
ng	-6.80227
▁thị	-6.80261
▁loại	-6.80963
▁tỷ	-6.81033
▁địa	-6.82024
▁tư	-6.82375
▁cảnh	-6.82847
▁minh	-6.82944
▁kinh	-6.83305
▁cấp	-6.83605
▁đối	-6.83647
▁tâm	-6.83782
▁tổng	-6.84233
▁đề	-6.8449
▁mặt	-6.84561
▁nay	-6.8465
▁mình	-6.85958
▁sử	-6.86579
▁máy	-6.86691
▁liên	-6.86993
▁bảo	-6.87322
▁phần	-6.87512
▁bay	-6.88841
▁pháp	-6.89429
▁chưa	-6.89789
▁trở	-6.9006
▁tình	-6.90139
▁hồ	-6.90379
▁sống	-6.90592
▁tham	-6.90892
▁nghiệp	-6.91349
▁dẫn	-6.91739
▁kỳ	-6.92299
▁bên	-6.92396
▁tiếng	-6.92442
▁giúp	-6.93526
▁văn	-6.93711
▁tin	-6.94101
▁tài	-6.94207
▁mỗi	-6.94948
▁tính	-6.95313
▁bản	-6.95395
▁chất	-6.95612
▁trị	-6.96091
▁dịch	-6.96237
▁m	-6.96651
▁sĩ	-6.96827
▁hóa	-6.97537
▁giảm	-6.97889
▁thì	-6.9814
▁điện	-6.98462
▁thi	-6.98494
▁chúng	-6.98593
▁khiến	-6.98647
▁thức	-6.98718
i	-6.98964
▁tiêu	-6.99477
▁bán	-6.99712
▁nào	-6.99937
▁hệ	-7.00067
▁báo	-7.00258
▁xã	-7.00854
▁thêm	-7.00989
▁sáng	-7.01131
▁thương	-7.02234
▁triển	-7.0301
▁ty	-7.03553
▁vực	-7.03558
▁tiên	-7.03704
▁trọng	-7.0423
▁chí	-7.04289
▁quá	-7.04549
▁dài	-7.04736
▁đánh	-7.05983
▁bố	-7.05994
▁mùa	-7.06113
▁nga	-7.0657
▁trẻ	-7.0743
▁quả	-7.08236
▁tốt	-7.08852
▁quân	-7.0895
▁từng	-7.09015
▁hoạt	-7.09408
▁hiệu	-7.09673
▁tác	-7.10218
▁dùng	-7.10507
▁quyết	-7.10951
▁vệ	-7.1102
▁chuyển	-7.11056
▁cảm	-7.1118
▁đình	-7.11321
▁ý	-7.11476
▁kiến	-7.11796
▁muốn	-7.12007
▁sở	-7.1206
▁bắt	-7.12324
▁trang	-7.12406
▁khó	-7.12595
▁đấu	-7.12867
▁doanh	-7.12994
▁chế	-7.13091
▁mang	-7.13177
▁giao	-7.13558
▁đưa	-7.13665
▁đất	-7.14453
▁usd	-7.14987
▁án	-7.15212
▁tuy	-7.15805
▁sân	-7.16058
▁gây	-7.16105
▁bất	-7.16171
▁đều	-7.16285
▁cuối	-7.16409
▁quận	-7.16838
▁trí	-7.17758
▁h	-7.18543
▁tích	-7.18639
▁giờ	-7.18648
▁thiết	-7.18861
▁tổ	-7.18877
▁sức	-7.18933
▁thay	-7.191
▁t	-7.19227
▁lập	-7.19295
▁đông	-7.19459
▁ban	-7.19643
▁mua	-7.1991
▁lễ	-7.19921
▁nghỉ	-7.20012
▁giữa	-7.20411
▁c	-7.2082
▁đặc	-7.20894
▁nằm	-7.20928
▁bà	-7.21631
▁tục	-7.21979
▁cô	-7.22999
▁trợ	-7.23211
▁nguyên	-7.23356
▁danh	-7.23386
▁phụ	-7.23434
▁mạnh	-7.24027
▁thắng	-7.24084
▁tây	-7.24431
▁chuyên	-7.24651
▁đồ	-7.24708
▁thích	-7.25277
▁mức	-7.25347
▁đổi	-7.25998
▁quy	-7.26054
▁ukraine	-7.26381
▁khí	-7.26434
▁tìm	-7.26492
▁hòa	-7.27193
▁đạo	-7.27406
▁cứu	-7.27569
▁bàn	-7.28201
▁đẹp	-7.28393
▁vấn	-7.28546
▁viện	-7.28747
▁vòng	-7.28765
▁đức	-7.29792
▁chọn	-7.2997
t	-7.29976
▁ai	-7.30694
▁trưởng	-7.30844
▁phí	-7.30872
▁n	-7.31628
▁biến	-7.31717
▁phục	-7.3178
▁diễn	-7.31949
s	-7.3195
▁s	-7.32132
▁đá	-7.32567
▁tay	-7.32614
▁đoàn	-7.32835
▁mọi	-7.32958
▁nghệ	-7.33112
▁nhỏ	-7.33184
▁lúc	-7.33243
▁chung	-7.33554
▁cá	-7.33732
▁chứng	-7.33833
▁nghiệm	-7.34322
▁thái	-7.34618
▁km	-7.34628
▁hoàn	-7.34897
▁chi	-7.35616
▁yêu	-7.35714
▁dưới	-7.35929
▁nguyễn	-7.35991
▁đảo	-7.36801
▁tỉnh	-7.36941
▁tên	-7.36948
▁hoa	-7.36976
▁biệt	-7.37087
▁sát	-7.37491
▁nổi	-7.37861
▁em	-7.37996
▁chơi	-7.3803
▁món	-7.38454
▁vô	-7.39063
▁tranh	-7.39386
▁sách	-7.39613
▁gồm	-7.39733
▁so	-7.39738
▁phẩm	-7.40622
▁cửa	-7.40721
▁châu	-7.40893
▁quyền	-7.41058
▁nhau	-7.4109
▁hồi	-7.41104
▁mẹ	-7.41176
▁mở	-7.41359
▁tàu	-7.41541
▁cung	-7.4169
▁nữ	-7.42049
▁tiến	-7.42122
▁vậy	-7.42337
▁dù	-7.4306
▁hướng	-7.43125
▁bóng	-7.43203
▁vật	-7.43328
▁vũ	-7.43596
▁ứng	-7.43667
▁cổ	-7.43701
▁truyền	-7.43831
▁thuộc	-7.44088
▁vàng	-7.44294
▁thân	-7.44361
▁thanh	-7.44949
▁diện	-7.45005
▁đủ	-7.45095
m	-7.4561
▁tuần	-7.45683
a	-7.46149
▁vừa	-7.46185
▁bỏ	-7.46293
▁gì	-7.46422
▁kế	-7.4653
▁hải	-7.4676
▁đặt	-7.46785
▁ít	-7.46883
▁tương	-7.47097
▁phường	-7.47207
▁lợi	-7.47378
▁đơn	-7.47417
▁tử	-7.47546
▁thuật	-7.47641
▁chạy	-7.47736
▁gặp	-7.47785
▁bãi	-7.48169
▁xây	-7.49008
▁thư	-7.49014
▁di	-7.49088
▁bởi	-7.4911
▁vùng	-7.49487
▁hưởng	-7.49503
▁ngay	-7.49652
▁tuyển	-7.50446
▁hang	-7.50521
▁tối	-7.5056
▁liệu	-7.50716
▁bác	-7.51564
▁bao	-7.51608
▁đoạn	-7.51953
▁phút	-7.52029
▁mất	-7.52469
▁hcm	-7.52589
▁biểu	-7.52945
▁hôm	-7.53354
▁hết	-7.53683
▁khả	-7.53739
▁gọi	-7.5375
▁phú	-7.53986
▁chân	-7.54059
▁xuống	-7.54124
▁nhập	-7.54244
▁dựng	-7.54301
▁áp	-7.54529
▁khai	-7.54752
▁núi	-7.54956
▁phía	-7.55145
▁mục	-7.55346
▁hlv	-7.55431
▁rồi	-7.55621
▁bánh	-7.55805
▁sơn	-7.56112
▁trải	-7.56215
▁trả	-7.56745
▁bắc	-7.56934
▁kiện	-7.57715
▁giáo	-7.57853
▁tiết	-7.58013
▁hạn	-7.58343
▁phá	-7.58411
▁nghị	-7.58791
▁đa	-7.58954
▁bài	-7.5918
▁cáo	-7.59295
o	-7.59577
▁cup	-7.60396
▁kiểm	-7.60398
▁kích	-7.60417
▁giữ	-7.61134
▁lan	-7.61138
▁khoa	-7.61142
▁màu	-7.61638
▁ngoại	-7.6279
▁chiếc	-7.63008
▁kể	-7.63394
▁nguy	-7.63463
▁nhóm	-7.63483
▁chia	-7.63551
▁sông	-7.64135
▁huyện	-7.64301
▁quán	-7.6441
▁tượng	-7.6447
▁hạ	-7.65149
▁quản	-7.65248
▁cây	-7.65399
▁rộng	-7.65549
'	-7.6591
▁sang	-7.66061
▁phạm	-7.66136
▁hãng	-7.66162
▁nhìn	-7.6735
▁luôn	-7.67429
▁trạng	-7.67536
▁cái	-7.67665
▁ghi	-7.68014
▁cố	-7.68281
▁đêm	-7.68379
▁môn	-7.68846
▁xem	-7.68964
▁hộ	-7.69497
y	-7.69595
;	-7.6984
▁yếu	-7.69937
▁tuyến	-7.69993
▁uống	-7.7029
▁lớp	-7.70483
▁chiều	-7.70556
▁riêng	-7.70596
▁lãnh	-7.70741
▁dễ	-7.7082
▁tinh	-7.70931
▁đạt	-7.70977
▁duy	-7.71326
▁lưu	-7.71475
▁nguồn	-7.71799
▁kỷ	-7.72135
▁b	-7.72228
▁ta	-7.72335
▁tấn	-7.72709
▁trái	-7.72974
▁hoàng	-7.73226
▁luật	-7.7358
▁độc	-7.73782
▁hút	-7.74002
▁phủ	-7.74025
▁đăng	-7.74435
▁mô	-7.75464
▁kỹ	-7.75582
▁tra	-7.75631
▁thuốc	-7.75663
▁long	-7.76389
▁phong	-7.76787
▁đứng	-7.77047
▁lời	-7.77162
u	-7.77475
▁khỏe	-7.77804
▁cạnh	-7.78178
▁phép	-7.78621
▁chuyến	-7.79049
▁israel	-7.79215
▁tướng	-7.79248
▁nhiệm	-7.79463
▁ngành	-7.79488
▁vận	-7.79498
▁hỏi	-7.79523
▁sao	-7.79601
▁xanh	-7.80488
▁vé	-7.80748
▁chuẩn	-7.80777
▁nhanh	-7.81496
▁hỗ	-7.81644
▁quảng	-7.8165
▁khám	-7.81868
▁lao	-7.81893
▁xác	-7.82239
▁mắt	-7.82476
▁cộng	-7.82626
▁mạng	-7.83131
▁lo	-7.83603
c	-7.83769
▁đời	-7.83998
▁nó	-7.84158
▁thần	-7.84271
▁ký	-7.84701
▁'	-7.85203
▁nhật	-7.85468
▁nha	-7.8558
▁vi	-7.85607
▁xa	-7.85725
▁tố	-7.86184
▁thuận	-7.86758
▁hạng	-7.86856
▁phân	-7.8702
▁l	-7.87024
▁vọng	-7.87463
▁ninh	-7.87571
▁luận	-7.87726
▁nghĩ	-7.87824
▁càng	-7.88208
▁chương	-7.88284
▁trump	-7.88531
▁nhằm	-7.88622
▁câu	-7.89053
▁sạn	-7.89595
▁trực	-7.89699
▁đóng	-7.89823
▁tịch	-7.90541
▁xét	-7.90724
▁hiểm	-7.90726
▁sắc	-7.90733
▁quanh	-7.90786
▁hữu	-7.90853
▁hậu	-7.91239
▁nghiên	-7.91461
▁tưởng	-7.91501
▁dưỡng	-7.9152
▁kéo	-7.91806
▁lượt	-7.92206
▁lửa	-7.92462
▁lộ	-7.92477
▁phù	-7.92505
▁chị	-7.92891
▁tân	-7.93042
▁vợ	-7.93051
▁chăm	-7.93326
▁sớm	-7.93553
▁dành	-7.93596
▁biên	-7.93649
▁máu	-7.93822
▁chuyện	-7.939
▁đà	-7.93962
▁d	-7.94309
▁y	-7.9449
▁ngôi	-7.94499
▁thiên	-7.94691
▁trần	-7.94973
▁lâu	-7.95261
▁phó	-7.95343
▁giám	-7.95572
▁chồng	-7.96292
▁ấn	-7.96395
▁buổi	-7.96769
▁trời	-7.9681
▁sơ	-7.97043
▁phản	-7.97098
▁vài	-7.97368
▁bé	-7.97389
▁league	-7.97776
▁cháy	-7.98103
▁tất	-7.9868
▁đào	-7.9877
▁thiếu	-7.98827
▁ngủ	-7.98907
▁đột	-7.98916
▁địch	-7.98919
▁real	-7.99097
▁hiểu	-7.99255
▁đảm	-7.9932
▁đôi	-7.99349
▁áo	-8.00299
▁tòa	-8.00498
▁hoạch	-8.01064
▁cử	-8.01134
▁chống	-8.0131
▁k	-8.01405
▁nghĩa	-8.01416
▁xử	-8.0193
▁nóng	-8.02129
▁hè	-8.02537
▁nặng	-8.0255
▁lấy	-8.0273
▁thưởng	-8.02779
▁vượt	-8.02891
▁ngân	-8.02956
▁buộc	-8.03001
▁trắng	-8.03007
▁cứ	-8.03483
▁thiện	-8.03711
▁đáng	-8.03812
▁xuyên	-8.04385
▁cát	-8.04784
▁dục	-8.04867
▁tuyên	-8.0501
▁thấp	-8.05659
▁khăn	-8.05704
▁tầng	-8.05893
tôi	-8.06123
▁dương	-8.06404
▁khoản	-8.06443
▁tránh	-8.06452
▁nhờ	-8.06592
▁giả	-8.06954
▁ngồi	-8.0715
▁cực	-8.0731
▁v	-8.07401
h	-8.07498
▁mạch	-8.07504
▁vốn	-8.07763
▁xung	-8.07924
▁rõ	-8.07929
▁chụp	-8.08226
▁kim	-8.08256
▁lương	-8.0835
▁đỏ	-8.08556
▁trò	-8.08578
▁lá	-8.0872
▁miền	-8.09533
▁lệ	-8.09939
▁bước	-8.09974
▁lòng	-8.10392
▁đẩy	-8.1062
▁đô	-8.10792
▁nhiệt	-8.1081
▁âu	-8.10989
▁sẻ	-8.11101
▁ung	-8.11204
▁đúng	-8.11249
▁thúc	-8.11441
▁căn	-8.1165
▁đau	-8.11878
▁trì	-8.1188
▁chịu	-8.11893
▁góp	-8.11926
▁giành	-8.11974
▁cựu	-8.12131
▁đốc	-8.12206
▁yên	-8.12219
▁đàn	-8.12261
▁giai	-8.12264
▁tốc	-8.12599
▁philippines	-8.12816
▁xảy	-8.13249
▁thua	-8.13323
▁bốn	-8.13375
▁soát	-8.13432
▁tiểu	-8.13645
▁mưa	-8.13956
▁mắc	-8.1411
▁khỏi	-8.14433
▁linh	-8.14883
▁thủy	-8.14979
▁hấp	-8.15289
▁làng	-8.15366
▁da	-8.15673
▁cụ	-8.15931
▁khá	-8.1594
▁tim	-8.15958
▁đầy	-8.16302
▁nền	-8.16382
▁cải	-8.16516
▁nữa	-8.16779
▁toán	-8.16868
▁lạc	-8.17029
▁xếp	-8.17173
▁nạn	-8.17624
▁vẻ	-8.17853
▁thẩm	-8.17891
▁sư	-8.18653
▁man	-8.18654
▁cánh	-8.18698
▁trai	-8.1875
▁binh	-8.19222
▁tội	-8.19287
▁hương	-8.19377
▁cà	-8.19602
▁thú	-8.20156
▁thật	-8.20203
▁thử	-8.20351
▁lái	-8.20449
▁kiếm	-8.20855
▁a	-8.21024
▁chỗ	-8.21238
e	-8.21758
▁gái	-8.22677
▁g	-8.22678
▁thất	-8.22825
▁vui	-8.22877
▁dòng	-8.23293
▁thịt	-8.23445
▁nghi	-8.24032
▁thổ	-8.24483
▁thác	-8.2449
▁nắng	-8.24526
▁huy	-8.24722
▁phê	-8.24915
▁tiện	-8.25186
▁champions	-8.25381
▁cha	-8.25869
▁bức	-8.25928
▁cư	-8.26151
▁giác	-8.26254
▁thừa	-8.26777
▁đón	-8.26914
▁phật	-8.2698
▁tắm	-8.26991
▁rừng	-8.27014
▁cường	-8.27042
▁tái	-8.2724
▁bờ	-8.27314
▁khẩu	-8.27339
▁x	-8.27569
▁thăm	-8.27583
▁video	-8.27583
▁mai	-8.27893
▁nối	-8.28028
▁cân	-8.28476
▁thuê	-8.28553
▁thuế	-8.28842
▁musk	-8.29083
▁trụ	-8.29117
▁tầm	-8.29159
▁thậm	-8.29305
▁thoại	-8.29477
▁hồng	-8.29948
▁chú	-8.30257
▁sâu	-8.30285
▁dấu	-8.3031
▁nhiễm	-8.30445
▁suất	-8.30656
▁hạt	-8.3097
▁tải	-8.3099
g	-8.31099
▁dung	-8.3121
▁âm	-8.31866
▁giống	-8.321
▁khởi	-8.32228
▁song	-8.32605
▁bổ	-8.32886
▁trách	-8.32921
▁phiên	-8.33564
▁lục	-8.33699
▁ấy	-8.34024
▁suy	-8.34093
▁ngoái	-8.34265
▁quen	-8.34295
▁bảng	-8.34353
▁mái	-8.34386
▁lựa	-8.34505
▁biden	-8.34878
▁lĩnh	-8.34884
▁hàn	-8.34925
▁ca	-8.35247
▁chứa	-8.35845
▁gửi	-8.35965
▁thuyền	-8.35988
▁hiệp	-8.36125
▁cục	-8.36187
▁ngắm	-8.36341
▁tuyệt	-8.36387
▁khắc	-8.3656
▁á	-8.36581
▁new	-8.36632
▁phi	-8.37001
▁viết	-8.37891
▁quang	-8.37931
▁thảo	-8.38154
▁nâng	-8.38457
▁chắc	-8.38549
▁đáp	-8.38909
▁pháo	-8.39242
▁quay	-8.39522
▁quý	-8.39547
▁hãy	-8.39757
▁vườn	-8.39976
▁luyện	-8.40183
▁trứng	-8.40232
▁tận	-8.40345
▁thẳng	-8.40442
▁lê	-8.40496
▁môi	-8.40586
p	-8.40656
▁sa	-8.41305
▁cận	-8.41472
▁world	-8.41518
▁chợ	-8.42265
▁giàu	-8.42424
▁đài	-8.42451
▁dạng	-8.43161
▁tức	-8.43213
▁tour	-8.43271
▁r	-8.43612
▁ổn	-8.44062
▁ngon	-8.44241
▁chờ	-8.4545
▁thí	-8.4614
▁chết	-8.46159
▁họp	-8.46182
▁loạt	-8.46506
▁trúc	-8.46564
▁lâm	-8.47013
▁bến	-8.4703
▁leo	-8.47103
▁ánh	-8.47194
▁kính	-8.47503
▁trưng	-8.47522
▁miễn	-8.47649
▁tai	-8.47679
▁huyết	-8.47791
▁suốt	-8.47878
▁xúc	-8.47888
▁góc	-8.47898
▁siêu	-8.48037
▁sai	-8.48503
▁nhu	-8.48917
▁gaza	-8.49042
▁khối	-8.49105
▁đỉnh	-8.49344
▁cấm	-8.49403
▁lai	-8.49968
▁ủng	-8.49979
▁trấn	-8.50052
▁giấy	-8.50067
▁mát	-8.50859
▁ch	-8.50876
▁cập	-8.50914
▁phóng	-8.51018
▁hại	-8.51394
▁hy	-8.51686
▁phán	-8.52176
▁hầu	-8.52225
▁chữa	-8.52357
▁ngăn	-8.52542
▁nghìn	-8.52681
▁chỉnh	-8.53141
▁clb	-8.53172
▁phổ	-8.53202
▁ưu	-8.53214
▁phim	-8.53311
▁hôn	-8.53385
▁chip	-8.53922
▁bầu	-8.54274
▁niệm	-8.54437
▁ly	-8.54661
▁dừng	-8.54709
▁tắc	-8.55326
▁thượng	-8.55822
▁nghe	-8.5598
▁dần	-8.56245
▁mũi	-8.56251
▁mặc	-8.56272
▁ngược	-8.56509
▁apple	-8.56516
▁thao	-8.56876
▁đen	-8.56998
▁ngờ	-8.57097
▁bày	-8.57154
▁viêm	-8.57257
▁chấp	-8.57344
▁coi	-8.57989
▁thai	-8.58416
▁lối	-8.58637
▁rối	-8.58838
▁ngọc	-8.58848
▁ngại	-8.58864
▁dữ	-8.59051
▁nhẹ	-8.59215
▁bữa	-8.59351
▁trại	-8.59519
▁xin	-8.59933
▁đổ	-8.59997
▁mại	-8.60125
▁nhớ	-8.60185
▁u	-8.60337
▁ceo	-8.60349
chúng	-8.6049
▁ủy	-8.60913
▁trùng	-8.60976
▁đ	-8.61008
▁băng	-8.61029
▁khung	-8.61079
▁dịp	-8.61474
▁đèn	-8.615
▁bơi	-8.6155
▁phạt	-8.61801
▁mong	-8.62031
▁não	-8.62519
▁khắp	-8.62792
▁nghiêm	-8.62845
▁sửa	-8.634
▁phúc	-8.63469
▁kèm	-8.63625
▁thang	-8.63638
▁lệnh	-8.63772
▁mối	-8.63795
▁mê	-8.63939
▁cũ	-8.64151
▁cam	-8.64171
▁rút	-8.64244
▁ảo	-8.64452
▁thoát	-8.64471
▁lạnh	-8.64557
▁lành	-8.6459
▁bại	-8.6532
▁vong	-8.65489
▁bậc	-8.6584
▁bí	-8.66011
▁sài	-8.66225
▁pha	-8.66392
▁mẫu	-8.66419
▁ôtô	-8.66529
▁nổ	-8.6655
▁đoán	-8.66717
▁trăm	-8.66734
▁la	-8.66833
▁gắn	-8.66975
▁kém	-8.66978
▁đua	-8.671
k	-8.67511
▁nông	-8.67623
▁khẳng	-8.67837
▁sàng	-8.6805
▁nuôi	-8.6843
▁miếng	-8.68479
▁gắng	-8.68805
▁nướng	-8.68833
▁rượu	-8.68974
▁trao	-8.69107
▁gòn	-8.6937
▁ngữ	-8.6988
▁đâu	-8.69999
▁vai	-8.70254
▁chiếm	-8.70264
▁hùng	-8.70612
▁chẳng	-8.70807
▁bật	-8.70918
▁chậm	-8.7107
▁ẩm	-8.71163
▁chóng	-8.71484
▁nhắc	-8.71694
▁dây	-8.71701
▁sung	-8.71765
▁giang	-8.71796
▁sợ	-8.71819
▁mì	-8.71964
▁quần	-8.72269
▁nửa	-8.72274
▁cắt	-8.72376
▁quê	-8.7244
▁hơi	-8.72737
▁rời	-8.7313
▁khuyến	-8.73466
▁city	-8.74061
▁tôn	-8.74149
▁xuân	-8.7437
▁ngọt	-8.74666
▁indonesia	-8.74668
▁dựa	-8.74675
▁họa	-8.747
▁ví	-8.74732
▁cột	-8.74909
▁thận	-8.7492
▁gấp	-8.75295
▁th	-8.75453
▁ngắn	-8.75623
▁mừng	-8.75635
▁khánh	-8.7564
▁huế	-8.75818
▁tồn	-8.75874
▁bang	-8.7592
▁thụ	-8.76073
▁ngôn	-8.76217
▁thở	-8.76278
▁bồi	-8.76458
▁phẫu	-8.76511
▁york	-8.76517
▁ma	-8.76553
▁đảng	-8.76667
▁nỗ	-8.76931
ông	-8.77052
▁hô	-8.77067
▁sáu	-8.77177
▁dầu	-8.77535
▁căng	-8.77695
▁biện	-8.77961
▁niên	-8.78151
▁tổn	-8.78278
▁gió	-8.78474
▁ước	-8.78476
▁béo	-8.78656
▁may	-8.79055
▁nghề	-8.79059
▁đích	-8.79187
▁khô	-8.79332
▁màn	-8.79545
▁tín	-8.79688
▁sóng	-8.79749
▁đạn	-8.79841
▁loạn	-8.79963
▁phiếu	-8.80386
▁dortmund	-8.80458
▁ích	-8.80509
▁đồi	-8.80625
▁sữa	-8.80681
▁hamas	-8.80712
▁mật	-8.81078
▁dải	-8.81113
▁đợt	-8.81327
▁bào	-8.81358
▁chắn	-8.81389
▁đoòng	-8.8165
▁quỹ	-8.81663
▁to	-8.81667
▁rẻ	-8.81942
▁thiệt	-8.82117
▁tháp	-8.82157
▁chấn	-8.82166
▁sóc	-8.82347
▁bè	-8.82511
▁dọc	-8.82675
▁lưới	-8.82992
▁nhấn	-8.83252
▁triều	-8.83417
▁rau	-8.83895
▁chứ	-8.84287
▁tr	-8.84637
▁nhạc	-8.84684
▁vĩnh	-8.8472
▁gà	-8.84903
▁loài	-8.85059
▁tù	-8.85166
▁gan	-8.85499
▁đương	-8.85719
nh	-8.85927
▁hoang	-8.86114
▁lạ	-8.86356
▁phối	-8.86958
▁khảo	-8.8714
▁đền	-8.87291
▁p	-8.87463
▁chục	-8.87501
▁chảy	-8.87787
▁hòn	-8.87848
▁trú	-8.88002
▁tam	-8.88046
▁tuấn	-8.88145
▁cầm	-8.88254
▁dạy	-8.88888
▁mây	-8.88998
▁miệng	-8.89179
▁đáo	-8.89184
r	-8.89516
▁mềm	-8.8955
an	-8.89607
▁giáp	-8.89782
▁lồ	-8.8985
▁ghế	-8.89896
▁tệ	-8.90186
▁hạnh	-8.90496
▁ng	-8.90537
▁thuyết	-8.91056
▁tươi	-8.91058
▁thỏa	-8.91076
▁trà	-8.91148
▁tùy	-8.91777
▁tường	-8.92058
▁dàng	-8.9227
▁euro	-8.92745
▁tàng	-8.92771
▁thờ	-8.93482
▁bối	-8.9356
▁sắp	-8.93566
▁giản	-8.93887
▁đọc	-8.9404
▁mộ	-8.94149
▁vua	-8.94248
▁kháng	-8.94281
▁ngừng	-8.94332
▁dõi	-8.94643
▁nhi	-8.94764
▁tạm	-8.94904
▁kê	-8.94944
▁thơm	-8.94991
on	-8.95091
▁ubnd	-8.9541
▁dày	-8.95474
▁ô	-8.95775
▁sạch	-8.9587
▁kịp	-8.96152
▁vịnh	-8.96247
▁chín	-8.96322
▁giây	-8.96608
▁hỏa	-8.96779
▁kiểu	-8.96959
▁đỗ	-8.97164
▁mbappe	-8.97377
▁thập	-8.97513
▁utd	-8.97686
▁chùa	-8.97709
▁ph	-8.97871
▁tóc	-8.97883
▁ngập	-8.98551
không	-8.98867
▁giấc	-8.98963
▁cú	-8.99217
▁rác	-8.99374
▁tỏ	-8.99841
▁qu	-9.00444
▁rơi	-9.00453
▁ngọn	-9.01035
▁xơ	-9.01302
▁lẫn	-9.01304
▁muối	-9.01729
▁mơ	-9.01737
▁thầu	-9.0187
▁phan	-9.01973
▁súng	-9.02114
▁top	-9.02155
▁dinh	-9.02529
▁bắn	-9.02659
▁ven	-9.02676
▁italy	-9.02879
▁vũng	-9.02934
▁tảng	-9.03055
er	-9.03252
▁kêu	-9.03422
▁chu	-9.03487
▁thoải	-9.03698
▁thơ	-9.03821
▁thải	-9.04019
▁đậu	-9.04108
▁chạm	-9.0414
▁bùng	-9.04146
▁liền	-9.04154
▁ngang	-9.04592
▁chiếu	-9.04651
▁đám	-9.04923
▁game	-9.0493
▁internet	-9.04978
▁trồng	-9.051
▁marathon	-9.0535
▁bảy	-9.05365
▁kh	-9.05372
▁xu	-9.05397
▁cuốn	-9.05466
▁tạp	-9.05488
▁san	-9.05738
▁trích	-9.06052
▁mạc	-9.06127
▁facebook	-9.06203
▁cậu	-9.06414
▁mã	-9.06463
▁vĩ	-9.06513
▁hứng	-9.06544
▁đạp	-9.06676
▁lắng	-9.06681
▁võ	-9.06698
▁ẩn	-9.06705
▁tiêm	-9.06772
▁cảng	-9.06937
▁chua	-9.06981
▁hủy	-9.07059
▁ghé	-9.07213
▁tụ	-9.0738
▁chút	-9.07639
▁lưng	-9.07701
▁thách	-9.07901
▁khán	-9.08043
▁hiếm	-9.08163
▁nhịp	-9.08315
▁cháu	-9.0836
▁nét	-9.08449
▁trọ	-9.08647
▁ngũ	-9.08745
▁kiệm	-9.08759
▁tĩnh	-9.09198
▁phận	-9.09261
▁bể	-9.09304
▁nấu	-9.09313
▁kia	-9.09577
▁thả	-9.09674
▁phỏng	-9.10033
▁thầy	-9.10082
▁liệt	-9.10113
▁tô	-9.10309
▁tả	-9.10406
▁lược	-9.10621
▁bò	-9.11045
▁hào	-9.11301
▁ha	-9.1137
▁quên	-9.11658
▁cơn	-9.11827
▁đỡ	-9.11843
▁sắt	-9.11884
▁gi	-9.12131
▁sàn	-9.12151
▁khóa	-9.1249
▁dao	-9.12692
▁singapore	-9.12699
▁cỏ	-9.12856
▁giãn	-9.13219
▁chấm	-9.13282
▁z	-9.13391
▁vinh	-9.13427
▁dụ	-9.13544
▁gates	-9.13599
▁gói	-9.1371
▁giỏi	-9.1407
▁thung	-9.14075
▁elon	-9.14135
▁phước	-9.1418
▁co	-9.14198
▁tộc	-9.14281
▁ràng	-9.1432
▁đoạt	-9.14543
▁mỡ	-9.14563
▁xương	-9.14591
▁vết	-9.1474
có	-9.15048
▁ro	-9.15087
▁lỗi	-9.152
▁sứ	-9.15659
▁nguyện	-9.15939
▁tặng	-9.15982
▁lãi	-9.16002
▁huynh	-9.1607
▁bù	-9.16088
▁lẽ	-9.16438
▁gốc	-9.1645
▁hưu	-9.16466
▁xong	-9.16496
▁f	-9.16914
▁tiềm	-9.16984
▁treo	-9.17048
▁kín	-9.17216
▁ép	-9.17279
▁gợi	-9.17344
▁kẻ	-9.17548
▁kharkov	-9.17766
▁dứt	-9.17773
▁moskva	-9.1778
▁hunter	-9.1778
▁kênh	-9.1785
▁nợ	-9.18081
▁dọa	-9.18235
▁vnexpress	-9.1826
▁ngưỡng	-9.18728
▁sút	-9.18798
▁thụy	-9.18874
▁làn	-9.19003
▁khích	-9.19008
▁runner	-9.19209
▁xấu	-9.19261
▁nh	-9.19423
▁vỡ	-9.19705
▁tesla	-9.19709
▁đòi	-9.19744
▁cấu	-9.19946
▁thiệu	-9.19964
▁mệt	-9.20204
▁mảng	-9.20276
▁sốt	-9.20448
▁bếp	-9.20662
▁su	-9.20761
▁đem	-9.20899
▁truy	-9.20965
▁nêu	-9.21207
▁thạnh	-9.21209
▁hẹn	-9.21363
▁palestine	-9.21642
▁cook	-9.21652
ch	-9.21673
▁can	-9.21962
▁in	-9.22003
▁hưng	-9.22005
▁kg	-9.22506
▁nhảy	-9.22631
▁ống	-9.22713
▁trừ	-9.22818
▁đe	-9.22845
▁ga	-9.22863
▁nhuận	-9.2314
▁nắm	-9.2319
▁tấm	-9.23469
▁bề	-9.23603
▁hẹp	-9.24139
▁điển	-9.24325
▁khổng	-9.24385
▁thăng	-9.24385
▁cặp	-9.24633
▁dãy	-9.24667
▁vđv	-9.25126
▁bar	-9.25368
▁cản	-9.25395
▁dị	-9.25513
▁hàm	-9.25601
▁niềm	-9.25699
▁rực	-9.26131
▁bụng	-9.26187
▁ngơi	-9.26194
l	-9.26673
▁đứa	-9.26799
▁chặt	-9.26941
▁ngã	-9.26984
▁suối	-9.2722
▁lầm	-9.27265
▁tôm	-9.27575
▁australia	-9.27702
▁mùi	-9.27851
▁tỏa	-9.28424
▁thám	-9.28449
▁cán	-9.28582
▁brazil	-9.28765
▁mét	-9.28808
▁hầm	-9.28989
▁psg	-9.29324
▁chữ	-9.29383
▁xế	-9.29388
▁chặng	-9.29419
▁tri	-9.29422
▁bạch	-9.29489
▁tháo	-9.29673
▁chặn	-9.29742
▁già	-9.29767
▁kiên	-9.30075
▁kiev	-9.3034
▁vững	-9.30409
▁thói	-9.31032
▁tu	-9.31051
▁quà	-9.31253
▁ngừa	-9.31444
▁khuôn	-9.31681
▁cơm	-9.31745
▁chở	-9.31904
▁bạc	-9.31986
▁phổi	-9.3202
▁giày	-9.32098
▁đốt	-9.32179
▁dư	-9.32376
▁xưa	-9.3253
▁al	-9.3254
▁nghèo	-9.32553
▁trưa	-9.3269
▁lũng	-9.32835
▁madrid	-9.3306
▁trữ	-9.33126
▁hằng	-9.33204
▁bồ	-9.33546
▁chẩn	-9.33641
▁the	-9.33767
▁hiến	-9.34133
▁mắn	-9.34182
▁huống	-9.34239
▁tán	-9.34246
▁lạt	-9.34256
▁cắm	-9.34278
▁túi	-9.34463
▁barca	-9.34771
▁sét	-9.34771
▁non	-9.34788
▁metaverse	-9.34829
▁dáng	-9.34864
▁chối	-9.34958
▁vitamin	-9.3529
▁thọ	-9.35311
▁trúng	-9.35381
▁ấm	-9.35458
▁vương	-9.35911
▁dậy	-9.35916
son	-9.36332
▁dắt	-9.36488
▁ronaldo	-9.36509
▁khoảnh	-9.36539
▁trương	-9.36734
▁bom	-9.36778
▁thôi	-9.37067
▁cưới	-9.371
▁nhơn	-9.37451
▁dũng	-9.37611
▁mỏi	-9.37721
▁huyền	-9.37739
▁đắt	-9.3786
anh	-9.38116
▁khuẩn	-9.382
ia	-9.38208
▁mạn	-9.38219
▁mấy	-9.38436
▁chào	-9.38626
▁cờ	-9.38632
▁na	-9.38656
▁trượt	-9.38753
▁gỡ	-9.3876
▁kịch	-9.38796
▁đợi	-9.38799
▁huấn	-9.38815
▁nở	-9.38825
thpt	-9.38828
▁mảnh	-9.39123
▁tuyết	-9.39603
▁wembley	-9.39922
▁google	-9.3994
▁sôi	-9.40172
▁oxy	-9.4051
▁cự	-9.40619
▁mốc	-9.40842
▁rồng	-9.40854
▁chinh	-9.41018
▁muộn	-9.4113
▁e	-9.41184
▁chánh	-9.41321
▁nepal	-9.41703
▁thánh	-9.41712
▁kho	-9.4173
▁sắm	-9.41734
▁djokovic	-9.41751
▁vời	-9.41955
▁cay	-9.42149
▁nai	-9.42607
▁bền	-9.42657
▁thước	-9.42716
▁chuột	-9.42941
▁khuyên	-9.43068
▁chàng	-9.4309
▁fa	-9.43116
nếu	-9.43203
▁cười	-9.43271
▁chuỗi	-9.43515
▁đèo	-9.43645
▁dốc	-9.43662
▁thù	-9.43667
▁rào	-9.43711
▁dường	-9.43764
▁paris	-9.44136
▁lắp	-9.44144
▁gạo	-9.44213
▁bát	-9.44238
▁thạch	-9.44285
▁đừng	-9.44527
▁de	-9.44621
▁than	-9.44717
▁đuổi	-9.44789
▁tiệc	-9.44904
▁cổng	-9.44926
▁bàng	-9.44978
▁bùi	-9.45099
▁tú	-9.45263
▁ngô	-9.45338
▁bhxh	-9.45348
▁nvidia	-9.45399
▁thpt	-9.45831
▁rủi	-9.46027
▁dạ	-9.46473
▁sjc	-9.466
▁chim	-9.46623
▁đậm	-9.46666
▁cứng	-9.46696
▁tràn	-9.46703
▁vợt	-9.4672
▁tung	-9.46918
▁tốn	-9.46983
▁ngõ	-9.47239
▁nhắm	-9.47309
d	-9.47348
▁bây	-9.47623
▁tùng	-9.47638
▁khổ	-9.47678
▁hâm	-9.47685
▁lang	-9.47842
▁rửa	-9.47878
▁airlines	-9.47882
▁gỗ	-9.47905
▁microsoft	-9.47905
▁phức	-9.47991
▁lọc	-9.48023
▁vân	-9.48178
▁mời	-9.48403
▁garros	-9.48519
▁roland	-9.48523
▁đĩa	-9.48548
▁nộp	-9.48553
▁đẳng	-9.48573
▁lãng	-9.487
▁thiệp	-9.48904
▁hài	-9.48971
v	-9.49159
al	-9.49357
▁bill	-9.494
▁hỏng	-9.50002
▁lệch	-9.50004
▁rỡ	-9.50461
▁buồn	-9.50473
▁trạm	-9.50544
▁nato	-9.50656
▁bỉ	-9.50993
▁uy	-9.51122
▁dược	-9.51206
▁đàm	-9.51255
▁tờ	-9.51321
▁đập	-9.51481
▁rafah	-9.51786
▁vỏ	-9.51984
▁bia	-9.52038
▁lính	-9.52071
▁vaccine	-9.52479
▁mẽ	-9.52499
▁dã	-9.52509
▁ruộng	-9.52518
▁giáng	-9.5252
▁bột	-9.52531
▁bayern	-9.52568
▁che	-9.52864
ai	-9.52894
▁lúa	-9.5316
▁hẻm	-9.53205
▁mãn	-9.53345
▁lẻ	-9.53354
▁cua	-9.53369
▁huawei	-9.538
▁gen	-9.5444
▁washington	-9.54487
▁resort	-9.54504
▁iraq	-9.54521
▁khủng	-9.54758
▁lây	-9.5477
▁hát	-9.54835
▁bổng	-9.54921
▁tết	-9.55126
đây	-9.5538
▁trông	-9.55783
▁lặn	-9.55787
▁spacex	-9.55855
▁ruột	-9.55863
các	-9.56009
▁bạo	-9.56151
▁trống	-9.56152
▁tráng	-9.56179
▁tám	-9.56388
▁nỗi	-9.56695
▁dạo	-9.56739
▁vả	-9.56844
▁bún	-9.57297
▁thiểu	-9.57443
▁hư	-9.57459
▁tuệ	-9.57982
▁olympic	-9.58009
▁vắng	-9.58013
ở	-9.58379
▁pa	-9.58514
▁điền	-9.58549
▁lộc	-9.58655
▁zelensky	-9.58666
▁vietnam	-9.58692
▁điệp	-9.58735
▁mực	-9.58945
▁openai	-9.59411
ác	-9.59608
▁lũ	-9.59825
▁săn	-9.60115
▁chó	-9.60146
ung	-9.6077
▁ngực	-9.60974
▁protein	-9.61628
▁chiêm	-9.61654
▁trầm	-9.61684
▁ương	-9.62206
▁cđv	-9.62276
▁zuckerberg	-9.62317
▁vẽ	-9.62346
▁sỏi	-9.62388
▁đam	-9.6256
ong	-9.6265
những	-9.62969
▁mệnh	-9.63047
▁sổ	-9.63051
▁thcs	-9.63058
▁hề	-9.6354
▁london	-9.63773
▁li	-9.63837
▁lỡ	-9.63838
▁chuyền	-9.6391
▁hố	-9.64447
▁mexico	-9.64524
▁thẻ	-9.64617
▁chừng	-9.64622
▁điệu	-9.64753
▁tứ	-9.64774
▁tràng	-9.64864
▁loan	-9.64882
▁măng	-9.64985
▁covid	-9.65285
▁putin	-9.65285
▁chênh	-9.65405
▁khoáng	-9.65419
▁joe	-9.65732
một	-9.65916
người	-9.65994
▁amazon	-9.66045
▁bão	-9.66173
▁bezos	-9.66175
▁buồng	-9.66244
▁ngộ	-9.6673
▁chúa	-9.66742
▁buôn	-9.66774
ra	-9.671
▁cm	-9.6713
▁hảo	-9.67258
▁bá	-9.67581
in	-9.67718
▁mổ	-9.67986
▁set	-9.68045
▁mãi	-9.68161
▁mẻ	-9.68433
▁ancelotti	-9.68456
▁ghép	-9.68477
▁ôm	-9.685
▁tuân	-9.68603
▁canh	-9.68674
ải	-9.68908
▁nhựa	-9.69159
▁nhĩ	-9.69171
da	-9.69303
▁lở	-9.69346
▁giảng	-9.69477
ồi	-9.69643
▁lạm	-9.69699
▁cai	-9.69947
▁hẳn	-9.69984
▁uav	-9.69989
▁bellingham	-9.70012
▁xóa	-9.70122
▁sen	-9.70232
▁ơn	-9.70238
▁xứ	-9.70477
▁xinh	-9.70558
▁đeo	-9.70597
▁múa	-9.70764
▁viễn	-9.70773
▁sót	-9.70778
▁bó	-9.70887
▁tật	-9.7089
ấm	-9.71082
▁thảm	-9.71135
▁chiên	-9.71187
▁vang	-9.71219
▁khói	-9.71283
▁ho	-9.71335
▁nho	-9.71353
▁lỗ	-9.71378
ấu	-9.71526
▁nadal	-9.71697
▁cúng	-9.7174
▁tan	-9.72104
▁hồn	-9.72331
▁dừa	-9.72387
▁vòm	-9.72387
▁đệm	-9.72415
▁cãi	-9.72501
▁đồn	-9.72649
▁xứng	-9.72733
▁bám	-9.7285
▁khanh	-9.72924
▁ngạc	-9.72926
man	-9.7297
▁nhiêu	-9.73345
▁mộc	-9.73384
▁khóc	-9.73387
▁mạo	-9.73431
▁đòn	-9.73539
▁vay	-9.73881
▁cống	-9.73933
▁trục	-9.74033
▁dọn	-9.74122
▁lặng	-9.74168
▁virus	-9.74213
▁diệt	-9.74386
▁né	-9.74408
▁thôn	-9.74542
▁bi	-9.74608
▁robert	-9.74854
▁lừa	-9.74915
▁ten	-9.74933
ta	-9.75071
▁mm	-9.75693
▁táo	-9.7575
▁khúc	-9.75753
▁tím	-9.75754
▁vú	-9.75811
▁lấp	-9.75872
▁tạng	-9.76277
▁ngầm	-9.7658
▁vinicius	-9.766
▁lão	-9.76612
▁khoác	-9.76618
▁dám	-9.76625
▁bớt	-9.76641
▁sánh	-9.7702
b	-9.7703
ội	-9.77039
▁túc	-9.77227
▁đế	-9.77342
▁vỉa	-9.77391
▁vleague	-9.77426
▁liêm	-9.77498
▁donald	-9.77529
▁lam	-9.7783
▁nồng	-9.78149
▁rùa	-9.78253
▁chìm	-9.78288
▁grand	-9.78333
▁bọc	-9.78449
▁lào	-9.78488
▁mặn	-9.78628
▁vách	-9.78704
âm	-9.78863
▁gọn	-9.79137
▁giật	-9.79166
▁canada	-9.79225
▁men	-9.79404
▁dội	-9.79425
▁trọn	-9.79753
▁chủng	-9.79845
▁kroos	-9.80062
▁bách	-9.80359
▁cù	-9.80386
▁kon	-9.80676
▁tắt	-9.80783
▁hổ	-9.80883
▁ranh	-9.80949
▁xâm	-9.80963
▁kong	-9.80979
▁lợn	-9.80991
▁móc	-9.81198
▁củ	-9.81269
x	-9.81282
▁j	-9.81762
▁tách	-9.81904
▁lùi	-9.81945
▁đúc	-9.8196
trong	-9.81973
di	-9.8213
▁khen	-9.82171
▁sangsik	-9.82682
▁netanyahu	-9.82683
▁rước	-9.8285
ớt	-9.83468
▁cốc	-9.8437
ồng	-9.84422
▁khớp	-9.84506
▁đặng	-9.84776
▁trôi	-9.84798
▁yến	-9.8482
eo	-9.85149
iêu	-9.85389
▁mộng	-9.85495
▁diễu	-9.85499
▁giường	-9.85646
▁bơ	-9.8587
▁meta	-9.85875
▁trào	-9.86072
▁sốc	-9.86219
▁taxi	-9.86465
▁đẻ	-9.86494
▁lều	-9.86531
▁khứ	-9.86568
▁cất	-9.87048
▁tokyo	-9.87312
▁tel	-9.87338
▁mark	-9.87398
▁cốt	-9.8742
▁bông	-9.87581
▁mọc	-9.8759
▁ám	-9.87868
ang	-9.88139
▁giông	-9.88155
ấy	-9.88183
▁online	-9.8826
▁saintfiet	-9.88265
▁xóm	-9.88266
▁quỳnh	-9.8828
▁duyệt	-9.88292
▁hag	-9.88315
▁rụng	-9.88332
▁nhẫn	-9.88333
▁mưu	-9.8837
▁xăng	-9.88377
▁chốt	-9.88397
▁tiệm	-9.88564
ê	-9.88663
▁chai	-9.88774
▁quầy	-9.89232
▁khát	-9.89357
▁cồn	-9.89527
▁hộp	-9.89994
▁web	-9.90322
▁côn	-9.90364
▁vòi	-9.90447
▁đinh	-9.90749
▁ốc	-9.90933
▁aviv	-9.91168
▁lò	-9.91168
▁quãng	-9.91173
▁liverpool	-9.91177
▁tọa	-9.91292
▁giòn	-9.91294
▁kem	-9.91427
ốc	-9.91811
ứa	-9.91898
▁nghiện	-9.91899
ẫn	-9.91923
es	-9.92057
en	-9.92137
▁fpt	-9.92159
▁thự	-9.92162
▁xoay	-9.92245
▁mầm	-9.92287
▁pin	-9.9256
▁hứa	-9.92842
ước	-9.9289
ao	-9.93103
▁golf	-9.93146
▁hôi	-9.93179
▁chèo	-9.93382
▁xô	-9.93501
▁hoài	-9.93672
▁;	-9.94138
▁liga	-9.94234
▁rãi	-9.94279
▁hong	-9.94288
▁chài	-9.94508
▁cáp	-9.94518
▁viet	-9.946
▁ni	-9.95033
▁sợi	-9.95034
▁vất	-9.95051
▁hò	-9.95204
▁niêm	-9.95319
▁cẩn	-9.95412
▁sạt	-9.95449
▁ki	-9.95479
▁say	-9.95496
▁quyên	-9.95767
▁ngư	-9.95803
▁khe	-9.96116
▁nôn	-9.962
ưởng	-9.96254
▁bitcoin	-9.96334
▁lũy	-9.96342
▁thoáng	-9.96366
▁gánh	-9.96487
▁dâu	-9.96489
▁tiếc	-9.96668
▁tá	-9.96679
▁chè	-9.96877
▁michael	-9.97303
▁nhiếp	-9.97307
▁ưa	-9.97379
▁chúc	-9.97402
▁hoá	-9.97424
▁gối	-9.9744
▁gắt	-9.97475
▁cẩm	-9.97646
▁hiếu	-9.97766
▁đo	-9.97873
khi	-9.98109
▁khẩn	-9.98388
▁khiển	-9.98446
▁mù	-9.98481
▁nhánh	-9.98535
con	-9.98542
▁soi	-9.9864
▁nút	-9.98685
▁lữ	-9.98861
▁huỳnh	-9.99378
▁campuchia	-9.99387
▁phấn	-9.99487
▁diệu	-9.99524
▁vôi	-9.99568
▁trâu	-9.99627
▁lân	-9.99804
▁va	-10.0011
▁nhộn	-10.0045
▁homestay	-10.0046
▁cholesterol	-10.0046
▁chatgpt	-10.0053
▁mi	-10.0059
▁đầm	-10.0071
▁hoảng	-10.0093
▁gián	-10.0094
▁park	-10.0108
▁cạn	-10.011
▁alcaraz	-10.0154
▁malaysia	-10.0155
▁lỏng	-10.0156
▁:	-10.0158
▁mịn	-10.0161
▁khấu	-10.0165
▁chọi	-10.0165
▁se	-10.018
▁mông	-10.0182
ập	-10.0184
▁kiệt	-10.0185
▁bích	-10.0204
▁thạc	-10.0263
▁lông	-10.0375
▁ngợi	-10.0379
▁dập	-10.0398
▁xào	-10.0399
▁trốn	-10.04
▁po	-10.0406
▁chăn	-10.0444
▁me	-10.0455
▁bangkok	-10.0492
▁luộc	-10.0498
▁túy	-10.0508
▁đản	-10.058
▁nhì	-10.058
ian	-10.0586
▁hormone	-10.0601
▁bê	-10.0618
▁hoành	-10.0621
▁mini	-10.0629
▁trật	-10.063
▁vạn	-10.0649
▁mờ	-10.065
▁carvajal	-10.0717
▁vẹn	-10.0717
▁luân	-10.0725
▁guardiola	-10.0729
▁tròn	-10.0729
▁nhắn	-10.0736
họ	-10.0739
ạch	-10.0824
▁tia	-10.0825
▁vươn	-10.0827
▁merchan	-10.0833
▁xạ	-10.0835
▁nề	-10.0843
▁lượn	-10.0849
▁cỡ	-10.0854
ào	-10.0876
▁ngột	-10.0879
▁phì	-10.0879
▁no	-10.0886
▁đai	-10.0919
▁cừu	-10.095
▁chẽ	-10.0956
▁drone	-10.0958
▁ổ	-10.0965
▁vấp	-10.0976
▁thắt	-10.1001
▁hoà	-10.1025
▁sun	-10.1057
▁khan	-10.1064
▁bụi	-10.1072
▁david	-10.1073
▁hoãn	-10.1075
▁phượng	-10.1079
▁chuối	-10.1079
▁đùa	-10.1089
▁ném	-10.1104
▁trăng	-10.1121
▁đan	-10.1131
▁sam	-10.1138
▁ts	-10.1147
▁bs	-10.1174
▁mũ	-10.1189
▁rịa	-10.1189
▁manhattan	-10.119
▁tre	-10.119
▁lưỡng	-10.1198
▁gạch	-10.1207
▁ngoạn	-10.1208
▁kíp	-10.1215
▁lu	-10.122
▁fc	-10.1232
▁khoang	-10.1254
▁lộn	-10.1285
ân	-10.13
▁mường	-10.1304
▁scotland	-10.1312
▁rà	-10.1314
▁camera	-10.1316
▁dịu	-10.1339
▁chật	-10.1354
▁tủ	-10.1375
▁ii	-10.1385
▁rắn	-10.1389
▁thợ	-10.1416
ại	-10.1427
▁icc	-10.144
▁khoán	-10.1445
▁xavi	-10.1453
▁cương	-10.1486
▁gay	-10.1492
▁đáy	-10.1505
▁lô	-10.1517
king	-10.1521
▁sương	-10.1522
điều	-10.1525
▁show	-10.1527
▁xả	-10.1528
▁phà	-10.1563
▁đằng	-10.1591
▁quyến	-10.1604
ôi	-10.1628
▁lăng	-10.164
▁kremlin	-10.1687
▁california	-10.1687
▁philippe	-10.1691
▁bắp	-10.1697
▁khâu	-10.171
▁đống	-10.1732
▁daniel	-10.1739
▁phun	-10.1743
▁nhàng	-10.1754
▁tạ	-10.1768
▁mò	-10.1782
▁kẹt	-10.1819
▁đắp	-10.1827
▁đứt	-10.1829
▁voi	-10.1833
▁hối	-10.1838
▁mồ	-10.1841
▁thép	-10.1843
▁nhũ	-10.1866
land	-10.1887
▁cỗ	-10.1913
▁trinh	-10.1914
▁tàn	-10.1923
▁tum	-10.1928
▁bồn	-10.1936
▁ireland	-10.1945
▁đựng	-10.1947
▁arsenal	-10.1949
▁xích	-10.1957
▁dính	-10.1958
▁mắm	-10.1963
▁thịnh	-10.197
ba	-10.1984
▁cúm	-10.1989
▁đãi	-10.2006
▁khoe	-10.2008
iết	-10.2014
▁w	-10.2051
▁filip	-10.2076
▁rẽ	-10.2077
▁dỡ	-10.208
▁sườn	-10.2087
▁calo	-10.2089
▁vướng	-10.2089
▁trễ	-10.2097
na	-10.2099
▁khiếu	-10.2116
▁ngưng	-10.2128
▁mòn	-10.2146
▁thoảng	-10.2158
th	-10.2167
▁phái	-10.2209
▁website	-10.2209
▁smartphone	-10.2214
▁bọt	-10.2215
▁vặt	-10.2218
▁rắc	-10.2226
▁ngựa	-10.2241
▁bệ	-10.2242
út	-10.2256
▁thô	-10.227
▁đạc	-10.2273
▁of	-10.2285
▁ngàn	-10.2289
▁nhầm	-10.2355
▁thùng	-10.2358
▁ham	-10.2376
▁nốt	-10.2377
▁mâm	-10.2403
èo	-10.2414
▁lầu	-10.2418
▁milan	-10.2485
▁sụt	-10.2488
▁jeff	-10.25
▁mỏng	-10.2512
▁un	-10.2523
▁ùn	-10.2529
▁sập	-10.2532
▁răng	-10.2544
▁trơn	-10.2563
rũ	-10.2574
óc	-10.2584
▁xá	-10.2595
▁khoai	-10.2598
▁dò	-10.2612
▁rộ	-10.2624
▁lọt	-10.2629
▁khơi	-10.2645
▁gương	-10.268
▁tị	-10.2706
ấp	-10.2711
▁gò	-10.2729
▁bỏng	-10.2735
▁ngón	-10.2746
ầu	-10.2756
▁seoul	-10.2761
▁buýt	-10.2762
▁slam	-10.2764
▁cò	-10.2768
▁nhãn	-10.2773
▁tom	-10.2783
▁xôi	-10.2814
▁tê	-10.2814
▁khiêu	-10.2818
▁dai	-10.286
to	-10.2888
▁nassr	-10.2904
▁perez	-10.2904
▁hungary	-10.2904
▁argentina	-10.2909
▁quạt	-10.2911
▁khép	-10.2914
▁tựu	-10.2919
▁nấm	-10.2943
▁gar	-10.2998
▁ngự	-10.3033
▁tiktok	-10.3049
▁chelsea	-10.3049
▁twitter	-10.3049
▁trừng	-10.3053
▁lãm	-10.3056
▁hụt	-10.3058
▁ức	-10.306
▁chả	-10.3063
▁toyo	-10.3068
▁dâng	-10.3074
ay	-10.3076
▁beau	-10.3079
▁hỗn	-10.3081
▁đắm	-10.3082
▁paul	-10.3085
▁lạp	-10.3099
ếch	-10.3138
▁cụm	-10.3156
gen	-10.3172
▁chán	-10.3175
esco	-10.3182
▁ielts	-10.3196
▁lặp	-10.3197
▁starlink	-10.3201
▁axit	-10.3206
▁messi	-10.3213
▁giận	-10.3217
▁thỉnh	-10.322
▁xà	-10.3232
▁sáp	-10.3245
▁niệu	-10.3246
▁xoa	-10.3246
▁rung	-10.3249
▁ti	-10.325
▁hiền	-10.3263
▁st	-10.3286
▁bùn	-10.3319
▁i	-10.3327
▁mỏ	-10.3327
▁thổi	-10.3336
▁everest	-10.3345
▁iphone	-10.3345
▁chén	-10.3353
ới	-10.3368
▁vạch	-10.3368
▁ngâm	-10.3374
rộn	-10.3384
đã	-10.3395
▁lấn	-10.34
ic	-10.3408
▁bận	-10.3436
▁lánh	-10.3486
▁đái	-10.3488
▁vs	-10.3491
▁gũi	-10.3495
▁sỹ	-10.3498
▁kiêm	-10.3507
▁checkin	-10.3514
▁hagl	-10.3514
▁trắc	-10.3519
▁o	-10.3524
▁ván	-10.3535
▁tồi	-10.3539
▁đắc	-10.3549
z	-10.3556
việc	-10.3561
với	-10.3587
theo	-10.3592
▁nghẽn	-10.365
▁mourinho	-10.3651
▁herbalife	-10.3651
▁đuối	-10.3663
▁lắm	-10.3667
▁tỏi	-10.3673
ăm	-10.3704
▁vây	-10.3721
▁nang	-10.3744
êm	-10.3753
▁duyên	-10.3767
▁villa	-10.3775
▁im	-10.3781
▁rò	-10.3797
▁móng	-10.3798
▁salad	-10.3807
▁gãy	-10.3809
át	-10.3811
▁ac	-10.3822
▁sầm	-10.3822
▁dẹp	-10.3824
▁phơi	-10.3831
▁spa	-10.3849
ần	-10.3868
▁ar	-10.3894
▁van	-10.3895
▁hi	-10.3935
▁""	-10.3941
▁đắ	-10.3964
▁hallie	-10.3965
▁berlin	-10.3966
▁dubai	-10.3967
ne	-10.3968
us	-10.3977
em	-10.3998
cho	-10.4005
▁tần	-10.4022
▁cửu	-10.4083
▁eu	-10.412
▁harry	-10.4127
▁phượt	-10.4129
▁phẳng	-10.4132
▁terzic	-10.4132
▁vọt	-10.4133
▁nhạy	-10.4133
▁inter	-10.4139
▁vắt	-10.4156
▁gom	-10.4156
▁hãi	-10.4161
học	-10.4174
▁thuần	-10.4186
áo	-10.422
▁ge	-10.4238
▁cọc	-10.4238
▁trân	-10.4249
▁bái	-10.4263
▁fan	-10.4295
▁patrick	-10.4296
▁dàn	-10.4326
▁gân	-10.436
▁neo	-10.4382
▁liễu	-10.4459
▁sủi	-10.446
▁austin	-10.4463
▁quét	-10.4466
▁vỗ	-10.447
▁giọng	-10.4472
▁par	-10.4478
▁soạn	-10.448
▁triệt	-10.4492
▁dồn	-10.4493
▁nhạt	-10.4499
▁rio	-10.4519
▁gập	-10.4533
ya	-10.4537
el	-10.4546
nhiều	-10.4563
▁tang	-10.4571
▁thửa	-10.4624
▁delhi	-10.4639
▁cướp	-10.464
▁smic	-10.4648
▁nhồi	-10.467
▁cuộn	-10.4676
án	-10.4677
ói	-10.4681
▁đới	-10.4723
sự	-10.4738
òi	-10.4742
▁hạch	-10.477
công	-10.4786
▁global	-10.4794
▁nghiêng	-10.4795
▁iceland	-10.4799
▁rèn	-10.4802
▁sinner	-10.4805
▁chéo	-10.481
▁phiền	-10.4811
▁iran	-10.4814
f	-10.4827
ổ	-10.4846
▁lật	-10.486
àng	-10.4863
▁lư	-10.4884
▁hoạn	-10.4887
▁thúy	-10.4888
ngày	-10.4914
▁los	-10.4945
▁gìn	-10.4949
▁yahoo	-10.4974
▁bẫy	-10.498
▁arab	-10.4981
▁kẽ	-10.4983
▁mèo	-10.5002
▁đê	-10.5027
▁điêu	-10.5053
▁thâm	-10.5078
▁nát	-10.5091
à	-10.5095
▁check	-10.5101
▁đói	-10.5107
nacho	-10.5124
▁bernabeu	-10.5153
▁vã	-10.5153
▁uốn	-10.5158
▁lướt	-10.5158
▁fifa	-10.5159
▁đuôi	-10.5162
▁xỉ	-10.5184
▁chậu	-10.5192
▁bơm	-10.5203
▁rộn	-10.5208
▁rán	-10.5217
▁trán	-10.5242
▁mập	-10.5252
▁pro	-10.5261
▁nhức	-10.5263
▁đấy	-10.5264
▁loa	-10.5268
▁fernande	-10.5271
▁rang	-10.5272
▁job	-10.5285
bạn	-10.5303
ạt	-10.5307
▁monaco	-10.5335
▁florida	-10.5335
▁benjamin	-10.5335
▁chuộng	-10.534
▁john	-10.5344
▁dani	-10.5347
▁samsung	-10.5348
▁gậy	-10.5349
▁ngắt	-10.536
ình	-10.5388
▁liều	-10.5435
▁go	-10.5454
▁mu	-10.5463
▁xen	-10.5467
ảnh	-10.547
sa	-10.5473
▁yết	-10.5484
go	-10.549
vi	-10.551
▁shangrila	-10.552
ley	-10.5525
▁aff	-10.5535
▁silicon	-10.5546
▁chàm	-10.5547
ết	-10.5549
ét	-10.5554
▁hiển	-10.558
ương	-10.562
▁tông	-10.5631
▁air	-10.5636
▁sưu	-10.5642
▁alex	-10.5645
▁bus	-10.5647
ler	-10.5651
▁ngà	-10.5652
▁khao	-10.5666
▁mo	-10.5671
id	-10.5679
▁thiêng	-10.5698
▁belarus	-10.5708
▁insulin	-10.5708
▁volodymyr	-10.5709
▁etheridge	-10.5709
▁rậm	-10.571
▁felice	-10.5715
▁nảy	-10.5715
▁troussier	-10.5716
pa	-10.5716
năm	-10.5726
▁vali	-10.5727
▁mượn	-10.5731
▁tước	-10.5737
▁chép	-10.5737
▁tiễn	-10.5748
rất	-10.575
do	-10.5752
ma	-10.5757
▁cởi	-10.5763
nhưng	-10.5767
▁thiền	-10.5767
▁re	-10.5769
▁dâm	-10.577
▁nụ	-10.5782
ham	-10.5819
▁mận	-10.584
▁and	-10.5872
▁angeles	-10.5901
▁cristiano	-10.5901
▁kẹo	-10.5902
▁hawaii	-10.5902
▁lõi	-10.5902
▁đũa	-10.5906
▁truyện	-10.5908
▁vùi	-10.5911
▁ôn	-10.5914
jet	-10.5917
▁nếp	-10.5918
▁kevin	-10.5921
▁nạp	-10.5926
▁heo	-10.5933
▁chiêu	-10.5951
as	-10.5953
▁nham	-10.5953
▁dời	-10.5962
▁xách	-10.5967
▁châm	-10.5975
▁mâu	-10.5976
ễ	-10.5983
▁mít	-10.5995
▁ngãi	-10.6005
▁củng	-10.601
▁shin	-10.6038
là	-10.6068
hydrat	-10.6096
▁lau	-10.6097
▁zverev	-10.6103
▁thoái	-10.6104
ie	-10.6112
chỉ	-10.6133
▁hc	-10.6142
▁robot	-10.6142
▁ali	-10.6146
▁kali	-10.6151
▁hở	-10.6163
ượng	-10.6176
▁ác	-10.6187
▁bì	-10.6188
▁pe	-10.6195
▁bong	-10.6198
▁bôi	-10.6211
▁chọc	-10.6215
▁cúc	-10.6257
ăn	-10.6276
▁united	-10.6297
▁chatbot	-10.6297
▁email	-10.6297
▁bundesliga	-10.6297
▁tnhh	-10.6297
▁giặt	-10.63
▁luồng	-10.6303
▁pfizer	-10.6303
▁nứt	-10.6306
▁lưỡi	-10.6306
▁xuồng	-10.6312
▁ốm	-10.6319
▁gốm	-10.6324
đó	-10.6327
▁steve	-10.6338
▁buông	-10.6349
▁pat	-10.6383
▁el	-10.6383
▁nhị	-10.6415
ầy	-10.6438
ompany	-10.6462
ri	-10.6478
▁hái	-10.6483
▁rong	-10.6492
▁lường	-10.6492
▁club	-10.65
▁jude	-10.65
▁vladimir	-10.6501
▁gỏi	-10.6507
▁giếng	-10.6508
▁group	-10.6518
▁dệt	-10.6526
▁khuyết	-10.6535
la	-10.6537
▁lắc	-10.6545
▁giam	-10.6562
▁kiều	-10.6568
am	-10.6571
▁lui	-10.6619
ạp	-10.6619
▁khuất	-10.6643
để	-10.6663
▁net	-10.6666
ing	-10.6671
▁carbo	-10.6675
ắt	-10.6682
▁phế	-10.6688
▁ri	-10.6703
▁nagelsmann	-10.6709
▁yoga	-10.671
▁tò	-10.6717
co	-10.6717
airway	-10.6722
▁cưng	-10.6724
▁quấy	-10.6731
▁ja	-10.6732
▁hùm	-10.6743
▁đọng	-10.6745
▁rách	-10.6756
▁cối	-10.6758
▁hét	-10.676
▁kề	-10.6774
▁vat	-10.6776
du	-10.6795
▁rome	-10.6803
▁star	-10.6809
▁đục	-10.6809
▁patt	-10.6876
▁le	-10.6878
▁bạt	-10.6882
q	-10.6891
ộn	-10.691
▁ascend	-10.6922
▁mau	-10.6929
▁đúp	-10.6943
▁blue	-10.6943
hành	-10.6945
▁tẩy	-10.6954
▁hàu	-10.6955
▁games	-10.6959
▁jose	-10.696
▁chê	-10.6975
mbert	-10.6987
▁tấp	-10.6987
▁nàn	-10.7031
▁cắn	-10.7039
▁q	-10.7054
▁nâu	-10.7054
hôm	-10.7061
▁rải	-10.7071
▁us	-10.7096
▁phô	-10.7107
one	-10.7123
▁icj	-10.7138
▁flick	-10.7139
▁atacms	-10.7139
▁intel	-10.7139
▁laporta	-10.7139
ẹp	-10.7155
▁huang	-10.7156
▁app	-10.7159
ine	-10.7165
▁chiểu	-10.7183
ton	-10.7188
▁hít	-10.719
▁hoại	-10.7203
▁mười	-10.7222
▁carlo	-10.7229
▁giết	-10.7237
▁ân	-10.7244
▁khoan	-10.7263
▁chăng	-10.7286
hai	-10.7313
ho	-10.7332
ức	-10.7333
▁nhở	-10.7342
▁nhường	-10.7359
▁nokia	-10.7361
▁potter	-10.7362
▁golfer	-10.7364
▁trek	-10.7368
▁nhưỡng	-10.7369
ực	-10.7374
▁alexander	-10.7377
▁pate	-10.7384
▁bẩn	-10.7389
▁thầm	-10.7417
▁đặn	-10.742
▁kè	-10.7429
▁quế	-10.7459
▁chảo	-10.7459
▁phe	-10.7511
▁đè	-10.7558
▁nem	-10.7562
▁họng	-10.7586
▁vđqg	-10.7588
▁patriot	-10.7588
▁zealand	-10.7588
▁vuông	-10.7597
▁houthi	-10.7604
▁nhọn	-10.7611
sau	-10.7613
▁gpt	-10.7616
ặc	-10.7616
iềm	-10.7631
ype	-10.7641
▁chót	-10.7647
▁lề	-10.765
lilly	-10.7656
▁dối	-10.7663
ơn	-10.7666
os	-10.7675
▁feder	-10.77
▁tỉ	-10.7718
▁kmh	-10.7738
ỏ	-10.7752
▁king	-10.7759
sipa	-10.7767
ơ	-10.7768
▁dĩ	-10.778
▁đtqg	-10.782
▁bêtông	-10.7821
▁ngoặt	-10.7821
▁diên	-10.7821
▁vứt	-10.7822
▁vẹo	-10.7822
▁chém	-10.7826
▁trùm	-10.7827
▁thủng	-10.7828
▁cro	-10.7834
▁váy	-10.7839
▁cắp	-10.785
▁cchampions	-10.785
▁thùy	-10.7853
▁điên	-10.7867
▁hotel	-10.7868
▁choáng	-10.7876
▁giấ	-10.7876
▁tuk	-10.7915
▁ko	-10.794
▁ái	-10.7983
atia	-10.7989
▁kì	-10.7989
▁đă	-10.8031
ảo	-10.8045
ép	-10.8049
▁rocket	-10.806
▁sụp	-10.8061
▁boei	-10.8061
▁thomas	-10.8064
▁ray	-10.8064
▁xay	-10.8064
▁dép	-10.8074
▁gấu	-10.809
▁cưỡi	-10.8096
▁captcha	-10.8101
▁lộng	-10.8103
▁cấy	-10.8111
▁lee	-10.8117
▁open	-10.8117
▁kyl	-10.8123
▁visa	-10.8136
no	-10.814
▁tóm	-10.8163
▁xông	-10.8173
▁đắn	-10.818
▁liber	-10.8186
emen	-10.8189
lo	-10.8191
▁nới	-10.8193
▁mcco	-10.8207
hải	-10.8223
▁hoi	-10.8226
▁run	-10.8258
▁lăn	-10.8261
▁bo	-10.8284
▁play	-10.8289
▁pgs	-10.8302
▁czech	-10.8302
▁ruồi	-10.8303
▁cocktail	-10.8311
▁cahn	-10.8312
▁bế	-10.8313
▁nguyệt	-10.8314
▁gene	-10.8316
▁lậu	-10.8317
uel	-10.8326
▁thắp	-10.8326
ontaine	-10.8341
▁xi	-10.8344
▁iii	-10.8354
ware	-10.8365
hi	-10.8376
▁jack	-10.8376
ro	-10.8377
▁rạ	-10.8396
▁kaya	-10.8416
▁phở	-10.8433
toni	-10.8437
▁bung	-10.845
▁phu	-10.8457
▁bội	-10.8468
tsen	-10.8481
enberg	-10.8486
▁america	-10.849
▁kath	-10.8492
▁đu	-10.8496
làm	-10.8509
▁lận	-10.8511
▁nô	-10.8513
▁chris	-10.852
▁green	-10.8527
aya	-10.853
▁chatrier	-10.8553
▁himalaya	-10.8553
▁leverkusen	-10.8553
▁sẹo	-10.8554
▁radar	-10.8556
▁huệ	-10.8558
▁asian	-10.8563
▁miếu	-10.8567
tại	-10.8567
▁nắp	-10.8574
ưỡng	-10.8579
▁lít	-10.8583
▁ngục	-10.8599
▁europa	-10.8599
▁lung	-10.8624
ty	-10.8629
mar	-10.8631
▁tà	-10.8632
▁red	-10.8663
▁dào	-10.8664
rạng	-10.8674
▁trội	-10.8677
▁fed	-10.8677
▁xí	-10.8703
ục	-10.8715
uy	-10.8719
▁khái	-10.873
▁nạ	-10.8744
▁bịt	-10.8763
sẽ	-10.8781
bank	-10.8789
▁sả	-10.8805
▁oxford	-10.8809
▁gpu	-10.8809
▁crocs	-10.8817
▁cuba	-10.8819
▁juan	-10.882
▁porter	-10.8825
▁full	-10.8833
▁sướng	-10.8836
ed	-10.8836
▁cậy	-10.8846
▁ngả	-10.8848
▁tha	-10.8853
thời	-10.8856
▁đụng	-10.8867
ành	-10.8871
ày	-10.8874
▁scott	-10.8882
▁won	-10.8899
ô	-10.8904
▁khống	-10.8916
de	-10.8929
ar	-10.8949
▁thắc	-10.8958
▁lún	-10.8984
▁vm	-10.8998
ưỡi	-10.9018
▁lôi	-10.9033
pi	-10.9048
▁tựa	-10.9049
▁bu	-10.9057
▁dmitr	-10.9072
▁stress	-10.9072
▁slovakia	-10.9072
từ	-10.9076
▁dẻo	-10.9076
▁pnj	-10.908
▁donetsk	-10.9081
▁haaland	-10.9081
▁georgia	-10.9083
▁modi	-10.9086
▁rỉ	-10.909
▁logo	-10.9091
▁lẩu	-10.9097
oanh	-10.9105
▁gauff	-10.9109
ấn	-10.9109
▁tảo	-10.911
▁gai	-10.9111
▁đệ	-10.9114
▁súc	-10.9114
▁west	-10.9118
▁khiếp	-10.9139
▁giã	-10.9139
▁lười	-10.9153
▁peter	-10.9158
ish	-10.9178
▁chèn	-10.918
đường	-10.9185
ất	-10.9198
is	-10.9209
▁phàn	-10.9229
▁nạt	-10.9239
▁thoa	-10.9244
ner	-10.9244
ck	-10.9264
▁cafe	-10.9265
▁mìn	-10.9293
▁cài	-10.9295
▁cúi	-10.9297
thực	-10.9317
arom	-10.9324
éo	-10.9328
▁neil	-10.9344
▁thềm	-10.9345
▁chùm	-10.935
▁mỳ	-10.9351
▁island	-10.9352
▁gameverse	-10.9352
▁btc	-10.9353
▁pga	-10.9354
▁rêu	-10.9354
▁ad	-10.9355
▁khoăn	-10.9356
▁khử	-10.9366
▁chui	-10.9368
▁gặt	-10.9369
▁hummels	-10.937
▁kate	-10.9372
▁ngỡ	-10.9379
▁chằng	-10.9379
▁triền	-10.9383
mỗi	-10.9383
▁trơ	-10.9383
victoria	-10.9389
efa	-10.9397
df	-10.9406
bi	-10.9409
eichel	-10.942
▁ami	-10.9427
ies	-10.9433
▁nhâm	-10.9441
▁nhũng	-10.945
rong	-10.9469
▁thấu	-10.9472
▁cong	-10.9485
▁nộ	-10.9518
▁nacho	-10.9521
▁khiêm	-10.9522
ford	-10.9522
▁băn	-10.9534
▁gành	-10.9536
ua	-10.9543
▁travel	-10.9565
ướt	-10.9569
việt	-10.9574
▁khỉ	-10.9578
▁mar	-10.9587
▁chen	-10.9592
▁náo	-10.9611
▁sky	-10.9612
▁ém	-10.9614
▁karim	-10.962
▁himars	-10.962
▁bamboo	-10.962
▁startup	-10.962
▁swiatek	-10.962
▁youtube	-10.962
▁medvedev	-10.962
▁chocolate	-10.962
▁lẫy	-10.9621
▁viktor	-10.9629
▁zi	-10.964
áp	-10.9644
▁dán	-10.9649
▁bẩm	-10.9661
▁xám	-10.9663
re	-10.9664
▁yanni	-10.9668
▁life	-10.9679
▁râu	-10.9685
pur	-10.9685
▁cki	-10.9697
lằn	-10.9719
ăng	-10.972
▁xiên	-10.9729
▁bón	-10.9733
▁gừng	-10.9735
▁đạm	-10.9742
ẩm	-10.9749
▁epic	-10.9768
ữa	-10.9775
ạo	-10.9789
ầm	-10.9793
▁kla	-10.9798
▁nách	-10.9802
ẳng	-10.9822
▁uyên	-10.9873
nó	-10.9903
▁hđnd	-10.9905
▁lebanon	-10.9906
▁noel	-10.9906
▁bailey	-10.9908
▁thèm	-10.9916
▁george	-10.9927
đi	-10.993
▁vác	-10.9967
▁wang	-10.9974
▁mọng	-10.9977
▁mênh	-10.9985
▁thục	-10.999
istan	-10.9991
ái	-11
▁khía	-11.0041
▁lự	-11.0047
▁mur	-11.0055
ha	-11.0068
le	-11.0079
ỡ	-11.0109
▁andre	-11.012
▁carn	-11.0133
cuộc	-11.014
ừng	-11.0164
▁sò	-11.019
▁canxi	-11.0199
▁martinez	-11.02
▁russell	-11.02
▁quỳ	-11.0203
▁chớp	-11.0204
▁ngợp	-11.0204
▁garai	-11.0208
và	-11.0209
▁courtois	-11.021
▁slovenia	-11.021
ằm	-11.0216
áng	-11.0216
trước	-11.0219
▁trịnh	-11.0219
▁léo	-11.022
chi	-11.0225
▁láng	-11.0232
▁cành	-11.0235
▁phiêu	-11.024
ez	-11.0247
▁ngạt	-11.0248
▁ồn	-11.0252
▁dela	-11.033
hãy	-11.0352
▁giàn	-11.0353
é	-11.0368
▁mồi	-11.0381
như	-11.0404
ống	-11.0415
▁sụn	-11.0426
▁nan	-11.0454
ách	-11.0484
▁dìn	-11.0485
ưu	-11.0486
▁louis	-11.0502
▁korda	-11.0502
▁tottenham	-11.0503
▁who	-11.0506
▁nole	-11.0508
ray	-11.0512
▁charles	-11.0513
▁billiards	-11.0514
▁roger	-11.0514
▁lợp	-11.0519
▁nếm	-11.0519
chưa	-11.0524
ỉ	-11.0527
âu	-11.0539
▁thuỷ	-11.0539
▁sếp	-11.0557
▁dỗ	-11.0559
ế	-11.0592
▁bib	-11.0594
▁khốc	-11.0595
▁oai	-11.0597
ùng	-11.0607
sen	-11.0624
ốt	-11.063
▁nóc	-11.0654
▁lơ	-11.0657
▁ứ	-11.0657
▁nện	-11.066
▁am	-11.0671
▁đắng	-11.0672
gần	-11.0675
bất	-11.0692
▁quát	-11.0711
▁pol	-11.0718
á	-11.0729
raz	-11.0738
▁deba	-11.0739
▁võng	-11.0739
▁rồ	-11.0739
ca	-11.0739
off	-11.0777
ậm	-11.0785
▁khương	-11.0794
▁major	-11.0815
▁beach	-11.0815
▁blinken	-11.0815
▁palantir	-11.0815
▁crimea	-11.0815
▁xoáy	-11.0816
▁samba	-11.0818
▁mướt	-11.0823
▁đùi	-11.0823
▁xèo	-11.0825
▁ryan	-11.0827
▁sạc	-11.0834
▁đổng	-11.0842
▁rạn	-11.0847
ằn	-11.0851
ắn	-11.0855
mục	-11.0866
▁kép	-11.0868
▁cu	-11.0868
▁bừng	-11.088
uốt	-11.0891
▁clip	-11.0908
io	-11.0918
▁hoan	-11.0936
▁lố	-11.0948
ướng	-11.0957
ls	-11.0957
▁ghét	-11.096
ý	-11.097
su	-11.0977
▁nhung	-11.0982
▁que	-11.0995
dric	-11.1011
▁len	-11.1012
ỏi	-11.1017
ane	-11.1025
▁ve	-11.1071
mọi	-11.1088
lor	-11.1092
gạt	-11.1093
ối	-11.11
▁smith	-11.1137
▁store	-11.1137
▁ingreso	-11.1137
▁rinjani	-11.1137
▁dặm	-11.1139
▁mate	-11.114
▁xé	-11.1142
▁capital	-11.1145
▁vẫy	-11.1147
▁ben	-11.1148
▁rafaelson	-11.1149
▁trộm	-11.1153
▁lót	-11.1154
▁đớn	-11.1161
▁mike	-11.1163
▁altma	-11.1166
▁bạ	-11.1168
đang	-11.1171
▁buồ	-11.1172
ce	-11.1178
▁giơ	-11.1179
iều	-11.118
▁syr	-11.1181
▁yen	-11.119
gar	-11.1205
▁lách	-11.1208
▁fun	-11.1218
▁triết	-11.1237
▁nhậm	-11.1244
đến	-11.1255
▁tro	-11.1264
▁lùng	-11.1297
thật	-11.1309
▁lờ	-11.1313
chính	-11.1315
òn	-11.1319
ard	-11.1324
noo	-11.1333
▁đố	-11.1338
ngoài	-11.1338
shiba	-11.1342
▁my	-11.1347
▁house	-11.1354
hu	-11.1357
ính	-11.1358
▁pep	-11.1364
riff	-11.1367
ưng	-11.137
▁id	-11.1372
▁pan	-11.1376
chiến	-11.1402
▁luka	-11.1413
burg	-11.142
▁vr	-11.1433
tất	-11.1446
express	-11.1469
▁omega	-11.147
▁qatar	-11.147
▁women	-11.147
▁miami	-11.147
▁níu	-11.147
▁abrams	-11.1471
▁cosplay	-11.1471
▁howard	-11.1471
▁research	-11.1471
▁krabi	-11.1471
ga	-11.1473
▁lửng	-11.1479
▁bel	-11.1481
▁rốt	-11.1491
▁súp	-11.1494
▁best	-11.1495
▁cuồng	-11.1501
▁porto	-11.1504
▁nasa	-11.1506
ọc	-11.1507
ổi	-11.1509
▁phác	-11.1531
uỳ	-11.1533
ờ	-11.1543
▁bút	-11.1547
ti	-11.155
▁hu	-11.1552
▁bru	-11.1567
▁hạm	-11.1568
▁ngách	-11.158
▁nhược	-11.1583
▁wil	-11.1587
▁gó	-11.1595
được	-11.1599
▁cano	-11.1645
hói	-11.1664
trên	-11.1675
gan	-11.1685
ật	-11.1695
▁hóc	-11.1695
▁chư	-11.1696
hiện	-11.1705
▁iv	-11.1721
hậu	-11.1729
▁si	-11.1736
ester	-11.1736
▁tv	-11.1766
ella	-11.1787
▁serbia	-11.1815
▁apec	-11.1815
▁obama	-11.1815
ki	-11.1815
▁xịt	-11.1815
▁nicotine	-11.1815
▁atletico	-11.1815
▁colombia	-11.1815
▁mekong	-11.1815
▁uae	-11.1816
▁amsterdam	-11.1816
▁cambridge	-11.1816
▁francisco	-11.1816
▁cohen	-11.1816
▁jensen	-11.1816
▁macron	-11.1819
▁ả	-11.1824
▁xuôi	-11.183
▁south	-11.1833
tz	-11.1834
ít	-11.1835
▁quyện	-11.1836
▁food	-11.1838
ốp	-11.1842
▁dứa	-11.1844
▁ướp	-11.1846
ys	-11.1846
▁roman	-11.1866
▁sim	-11.1869
▁thạo	-11.1889
un	-11.1889
▁nhé	-11.1893
▁eo	-11.1896
▁mri	-11.1901
▁trệ	-11.1904
▁vạt	-11.1908
ỗi	-11.1911
cơ	-11.1949
▁cọ	-11.1978
▁én	-11.1984
ơi	-11.1985
▁lọ	-11.1988
▁yang	-11.2006
▁nhiễ	-11.2016
igue	-11.2018
▁mac	-11.2036
▁nàng	-11.2047
vì	-11.2052
khó	-11.2062
imo	-11.2075
▁hen	-11.2079
▁vịt	-11.209
▁camp	-11.2122
▁hoả	-11.2127
ích	-11.2133
▁ari	-11.2139
thành	-11.2155
ate	-11.2159
▁má	-11.2163
cago	-11.2163
▁fpv	-11.2171
▁matthew	-11.2172
▁massage	-11.2172
▁novak	-11.2173
▁ghềnh	-11.2173
▁ivf	-11.2175
▁julian	-11.2175
▁bưởi	-11.2175
ival	-11.2176
▁xoài	-11.2176
▁nhuyễn	-11.2176
▁vff	-11.2177
▁rệt	-11.2183
▁erik	-11.2184
▁phuket	-11.2184
▁bỗng	-11.2185
▁búa	-11.2187
▁nệm	-11.2194
▁trỗi	-11.2194
▁copa	-11.2204
▁diêm	-11.2207
▁luis	-11.2211
▁mụn	-11.2215
▁rể	-11.2217
▁carb	-11.2218
▁bruno	-11.2223
skov	-11.2228
▁maria	-11.2232
▁chan	-11.2234
▁chốn	-11.2235
dù	-11.224
trung	-11.2252
▁ngụ	-11.2255
nhà	-11.2257
cần	-11.2259
▁khê	-11.226
▁american	-11.2263
▁háo	-11.2267
▁bon	-11.2284
▁he	-11.2299
▁antoni	-11.2311
sống	-11.2332
ên	-11.2336
sai	-11.2342
bá	-11.2351
ness	-11.2363
per	-11.2366
▁pà	-11.2367
ington	-11.238
▁chiết	-11.2391
au	-11.2392
hanna	-11.2395
bing	-11.2398
▁bin	-11.2399
▁đun	-11.2418
hông	-11.2428
▁quỷ	-11.2437
way	-11.2442
▁ủ	-11.2443
▁ka	-11.2454
▁carbon	-11.2477
▁dem	-11.2486
▁jo	-11.2498
▁roma	-11.2499
▁be	-11.2507
hênh	-11.2525
▁thâ	-11.2526
▁chá	-11.2529
▁martin	-11.2534
▁boston	-11.2542
▁belgorod	-11.2543
▁hollywood	-11.2544
▁knight	-11.2544
et	-11.2546
▁cabin	-11.2547
▁suôn	-11.255
▁rót	-11.2562
dolf	-11.2575
▁khoái	-11.2578
▁coffee	-11.2581
▁mon	-11.2582
▁nike	-11.2587
▁ráo	-11.2597
▁ngan	-11.2597
unich	-11.2601
▁maya	-11.2633
▁ku	-11.2636
ynck	-11.2639
▁răn	-11.264
▁xát	-11.2655
▁tủy	-11.2657
▁nhấ	-11.2679
▁ghe	-11.2689
▁wall	-11.2719
▁gã	-11.2748
▁hung	-11.2754
▁white	-11.2761
ệ	-11.2765
ưa	-11.2775
▁melin	-11.2777
▁super	-11.2779
▁sea	-11.2792
▁muôn	-11.2808
▁mến	-11.2815
cao	-11.2817
▁min	-11.2818
▁var	-11.2822
▁pl	-11.2823
▁port	-11.2843
▁sáo	-11.2845
òng	-11.2872
orto	-11.2905
ể	-11.2908
▁té	-11.2911
▁hpv	-11.2926
▁osaka	-11.2927
▁disney	-11.2927
▁james	-11.2927
▁stripe	-11.2927
▁vietravel	-11.2927
▁amelia	-11.2929
hức	-11.2934
▁studio	-11.2934
mouth	-11.2934
▁laser	-11.294
▁ios	-11.2947
điểm	-11.2958
▁fico	-11.2968
ball	-11.2969
▁school	-11.2981
buck	-11.2985
ánh	-11.299
▁sà	-11.2998
▁đành	-11.3023
▁view	-11.3028
ol	-11.3029
▁mw	-11.303
▁nick	-11.3033
▁chơn	-11.3036
▁thiêm	-11.3051
▁stefan	-11.3052
que	-11.3083
▁bóc	-11.3084
▁quái	-11.3085
giá	-11.3092
ằng	-11.3096
tweet	-11.3112
qua	-11.3115
te	-11.3119
▁thưa	-11.3126
đánh	-11.3162
um	-11.3177
▁hao	-11.3178
▁vành	-11.3188
gx	-11.3189
kỳ	-11.3191
long	-11.3191
yan	-11.3194
yd	-11.3199
úp	-11.3208
ủi	-11.3213
▁nghiệ	-11.3237
▁sk	-11.324
▁lon	-11.3262
▁inch	-11.3285
ây	-11.3294
▁har	-11.3299
khu	-11.3314
krug	-11.3323
▁foden	-11.3326
▁brisbane	-11.3327
▁jerusalem	-11.3327
▁championship	-11.3328
▁baldis	-11.3328
▁romania	-11.3328
▁model	-11.3329
▁stormy	-11.3329
▁bướu	-11.3329
▁suýt	-11.333
▁brp	-11.333
▁shein	-11.3332
gi	-11.3336
▁saso	-11.3337
▁lứt	-11.3337
▁atp	-11.3338
▁nguội	-11.3341
▁ngậy	-11.3341
▁navarr	-11.3342
▁nhặt	-11.3345
iberia	-11.3346
▁inge	-11.3346
▁tót	-11.3352
▁hil	-11.3357
▁lyon	-11.3363
▁hoạ	-11.3364
▁hiv	-11.3367
▁vảy	-11.3374
▁micro	-11.338
▁tăm	-11.3384
▁rằ	-11.3387
the	-11.3387
uyền	-11.3392
▁ru	-11.3404
chai	-11.3416
ám	-11.3418
iệt	-11.3419
▁je	-11.3421
▁vu	-11.3426
▁bull	-11.3437
rụi	-11.348
▁national	-11.3492
▁chay	-11.3498
▁pho	-11.353
ột	-11.3533
▁kut	-11.3535
▁klo	-11.3542
ôm	-11.3555
''	-11.3567
ịnh	-11.357
han	-11.358
ull	-11.3587
ẫm	-11.3611
▁nhiê	-11.3635
pper	-11.364
ico	-11.3646
▁nón	-11.3648
▁bồng	-11.3662
eliza	-11.367
▁test	-11.3681
cảm	-11.3683
▁ana	-11.3686
▁dang	-11.3687
▁xì	-11.3697
▁gas	-11.3701
▁sher	-11.3713
đặc	-11.3715
bình	-11.3727
ệch	-11.3729
▁sởi	-11.3737
▁ruud	-11.3743
▁hezbollah	-11.3744
▁livestream	-11.3744
▁jordan	-11.3745
▁rãnh	-11.3751
▁cún	-11.3758
▁hẻo	-11.376
▁ngặt	-11.3761
▁minhmua	-11.3765
▁casper	-11.3776
▁manh	-11.3783
▁giọt	-11.3789
▁quật	-11.3806
hy	-11.3822
▁sừng	-11.3823
▁lác	-11.3823
▁bali	-11.3834
nam	-11.3842
▁kiêng	-11.3852
▁lab	-11.3862
hướng	-11.3864
tổng	-11.3885
▁rú	-11.3885
▁ngài	-11.3918
▁lắ	-11.3919
▁thuột	-11.3929
▁chôn	-11.3942
ney	-11.3943
yne	-11.3944
▁nức	-11.3963
stan	-11.3976
về	-11.4004
so	-11.401
lal	-11.4047
ợ	-11.4061
câu	-11.4066
▁gambi	-11.4104
uống	-11.4104
ena	-11.4107
hàng	-11.4109
ingham	-11.4109
rov	-11.4116
ial	-11.4121
▁thà	-11.4126
▁blog	-11.4146
ậy	-11.4148
▁hủ	-11.4158
▁rã	-11.416
se	-11.4164
gel	-11.4166
▁wifi	-11.4178
▁taeyong	-11.4178
▁bakhmut	-11.4178
▁vinfast	-11.4178
▁richard	-11.4178
▁instagram	-11.4178
▁marketing	-11.4178
▁đươ	-11.4179
▁johnson	-11.418
combank	-11.4185
▁tản	-11.4187
▁lụa	-11.4188
li	-11.4191
▁acv	-11.4192
thay	-11.4195
▁quấn	-11.4209
▁koh	-11.421
▁com	-11.4212
▁sh	-11.4213
vard	-11.4217
▁wood	-11.4226
▁reus	-11.4229
ef	-11.4229
lúc	-11.4235
ron	-11.4238
▁glucos	-11.4242
hôn	-11.4246
▁angel	-11.4253
or	-11.4254
▁mải	-11.4255
▁vpf	-11.4257
▁mỉ	-11.4264
▁teq	-11.4265
▁we	-11.4271
▁jane	-11.4292
nga	-11.4293
▁bird	-11.4296
▁găng	-11.43
▁gầm	-11.4302
▁you	-11.4304
ssen	-11.431
hượng	-11.4319
ter	-11.4322
hạ	-11.4326
ms	-11.4326
ka	-11.433
▁điếu	-11.4335
ban	-11.4337
đối	-11.4363
ance	-11.4379
ema	-11.4381
quan	-11.4385
quá	-11.4386
của	-11.439
ifi	-11.4397
▁alba	-11.4412
gy	-11.4425
ồn	-11.4444
▁vơ	-11.4445
▁is	-11.446
▁toshi	-11.4471
▁one	-11.4479
▁marc	-11.4484
▁nhăn	-11.4492
ko	-11.4492
dl	-11.4497
ow	-11.4514
▁rủ	-11.454
▁sat	-11.4558
oster	-11.4563
▁ipo	-11.4577
▁trans	-11.4582
▁marco	-11.4586
ôn	-11.459
▁nọ	-11.46
▁zoox	-11.4632
▁rafael	-11.4632
▁sydne	-11.4632
▁origin	-11.4632
▁vnindex	-11.4632
▁oregon	-11.4632
▁bjp	-11.4632
▁burberry	-11.4632
▁larry	-11.4632
▁rooney	-11.4632
▁barcelona	-11.4632
▁fenerbahce	-11.4633
▁vinacapital	-11.4633
▁sierra	-11.4633
▁collison	-11.4633
▁loãng	-11.4634
vàng	-11.4634
▁baht	-11.4635
▁pizz	-11.4638
▁evn	-11.4638
▁metro	-11.4639
▁old	-11.4642
▁technolog	-11.4646
▁hangseo	-11.4647
▁blockchain	-11.4648
▁serie	-11.4648
▁vặn	-11.4652
▁gpto	-11.4653
▁lụy	-11.4654
▁series	-11.4671
▁benz	-11.4671
gary	-11.4673
ó	-11.4686
▁huân	-11.4688
▁jean	-11.4691
số	-11.4691
eum	-11.4693
▁lóc	-11.4701
▁town	-11.4703
▁óc	-11.4709
▁chìa	-11.4731
ỷ	-11.4746
▁khôn	-11.4784
óng	-11.4807
▁edin	-11.4813
ến	-11.4815
bộ	-11.4828
▁mah	-11.4854
khách	-11.4862
ẩy	-11.4888
and	-11.4889
ọng	-11.4896
house	-11.4909
agui	-11.4912
▁pic	-11.4915
bệnh	-11.493
nis	-11.494
▁engl	-11.495
bu	-11.4961
đại	-11.4971
đúng	-11.4985
ves	-11.4995
ổn	-11.4997
ucas	-11.5001
brig	-11.5002
nd	-11.5008
▁tex	-11.5015
▁tho	-11.5016
▁mc	-11.5022
▁hổng	-11.5023
mail	-11.5028
ẩu	-11.5029
▁card	-11.5044
▁kyo	-11.5051
▁nương	-11.507
lum	-11.5086
▁kob	-11.5089
finishe	-11.5106
▁klopp	-11.5108
▁dylan	-11.5108
▁street	-11.5108
▁lionel	-11.5108
▁boxing	-11.5108
▁anthony	-11.5108
▁burnley	-11.5108
▁juventus	-11.5108
▁geneva	-11.5108
▁scheffler	-11.5108
▁geographic	-11.5109
▁stent	-11.511
▁cuồn	-11.5116
▁casemiro	-11.5124
▁rashford	-11.5124
▁sedbergh	-11.5125
▁pedro	-11.5127
▁tưới	-11.5127
▁sergey	-11.5128
▁xiao	-11.5129
▁sochi	-11.5133
▁napoli	-11.5138
▁đôn	-11.5144
▁chile	-11.5145
▁thiel	-11.515
▁bẹp	-11.515
▁thính	-11.5167
▁sá	-11.5181
thu	-11.5181
olt	-11.5186
▁black	-11.519
▁đoan	-11.5193
▁nhô	-11.5193
▁''	-11.5196
▁bir	-11.5209
▁evert	-11.5222
▁nhủ	-11.5236
quỷ	-11.5243
tự	-11.5258
▁chì	-11.5273
▁mủ	-11.5275
xin	-11.5286
ni	-11.5298
▁nhích	-11.5302
▁jens	-11.5306
ượt	-11.5322
▁phùng	-11.534
▁rạc	-11.5341
▁uất	-11.5342
▁ap	-11.5346
thủ	-11.5357
ity	-11.5357
mình	-11.5357
chuyến	-11.5365
ly	-11.5376
▁đâ	-11.5418
tino	-11.5427
les	-11.5431
pe	-11.5438
oka	-11.546
bị	-11.5491
tiền	-11.552
dan	-11.5528
▁đực	-11.5537
▁kha	-11.5553
fer	-11.5564
phải	-11.5564
▁nấy	-11.5572
ukraine	-11.5574
ộp	-11.5578
▁monte	-11.5592
đồng	-11.5602
▁dan	-11.5605
▁slna	-11.5608
▁ounce	-11.5608
▁xoắn	-11.5608
▁nicklaus	-11.5608
▁vneid	-11.5608
▁kempinski	-11.5608
▁lancaster	-11.5608
▁bragg	-11.5608
▁michelin	-11.5609
▁award	-11.5609
▁xiếc	-11.5611
▁peru	-11.5614
▁fb	-11.5614
▁pac	-11.5623
stol	-11.5628
▁clint	-11.5634
▁ơi	-11.5643
venice	-11.565
vik	-11.5652
▁pool	-11.5655
phụ	-11.5666
ộc	-11.5668
made	-11.5672
▁nuối	-11.5678
▁rát	-11.568
▁conte	-11.5681
▁guin	-11.5683
▁ghen	-11.5693
▁chồn	-11.5695
▁rose	-11.5701
▁lì	-11.5702
▁gõ	-11.5706
▁chiang	-11.5708
ừa	-11.5714
▁latin	-11.574
▁tắp	-11.5744
een	-11.5758
ệt	-11.5758
bố	-11.5759
▁mats	-11.5768
▁manch	-11.5777
pez	-11.5778
iệu	-11.5786
▁bale	-11.5806
▁cụt	-11.5807
ristian	-11.5811
▁tụng	-11.5816
▁mee	-11.5825
▁gur	-11.5842
bs	-11.5848
cott	-11.5859
inato	-11.5869
▁alp	-11.5878
ska	-11.5879
▁trầu	-11.5886
▁chà	-11.5949
tình	-11.5951
▁des	-11.5961
▁anton	-11.5991
hội	-11.5991
hansi	-11.5993
▁car	-11.6014
cách	-11.6022
▁wal	-11.603
ộm	-11.6038
▁ste	-11.6038
hân	-11.605
▁nà	-11.6056
mang	-11.6072
hiên	-11.6079
rốn	-11.6084
ry	-11.6092
▁bọ	-11.61
▁bidv	-11.6131
▁rẫy	-11.6131
▁jesus	-11.6134
▁fold	-11.6134
▁galaxy	-11.6134
▁madre	-11.6134
▁musetti	-11.6134
▁tencent	-11.6134
▁adeyemi	-11.6134
▁herbert	-11.6134
▁budapest	-11.6134
▁palmer	-11.6134
▁annapurna	-11.6134
▁kestan	-11.6134
▁marvell	-11.6135
▁pennsylvania	-11.6135
▁conference	-11.6135
▁pleik	-11.6135
▁mátxa	-11.6136
▁bướm	-11.6137
▁khoẻ	-11.6137
▁latte	-11.6137
▁zhang	-11.6137
▁abc	-11.6139
▁ether	-11.6139
▁bath	-11.614
▁quẩn	-11.6144
▁agri	-11.6147
▁ngửa	-11.6151
▁johansson	-11.6152
▁hon	-11.6156
▁ne	-11.6156
▁logic	-11.6165
▁williams	-11.617
trường	-11.6172
▁wa	-11.6179
▁fcc	-11.6182
ặn	-11.6184
▁méo	-11.6185
▁thẹn	-11.6193
ling	-11.6193
▁rập	-11.62
▁del	-11.6204
▁north	-11.621
▁aston	-11.6211
▁magi	-11.6214
▁yak	-11.6224
▁nã	-11.6243
▁thắn	-11.6251
▁rô	-11.6262
ousov	-11.6266
▁bộc	-11.6283
▁self	-11.6287
iếng	-11.629
ansk	-11.629
bay	-11.6291
quang	-11.6297
xe	-11.6301
▁thừng	-11.6316
▁nghé	-11.6319
tin	-11.6353
cô	-11.6356
rai	-11.6362
ll	-11.6365
ren	-11.6368
▁jan	-11.6377
za	-11.6386
pia	-11.6399
thứ	-11.6402
▁masa	-11.6403
▁hou	-11.6409
ela	-11.6411
▁vở	-11.6427
▁nm	-11.643
▁sch	-11.6438
ụy	-11.6441
▁abra	-11.6441
rễ	-11.6452
▁ql	-11.6458
ak	-11.6461
hất	-11.6467
▁ipad	-11.6478
▁colla	-11.6481
hanh	-11.6482
▁lã	-11.6484
▁cal	-11.6495
cine	-11.65
▁lav	-11.6503
▁nhí	-11.6509
▁bla	-11.6531
▁ale	-11.654
lu	-11.6547
▁toả	-11.6552
cha	-11.6559
ok	-11.656
ồ	-11.6561
cháy	-11.6568
cái	-11.6569
ulte	-11.6569
▁dẫ	-11.658
hổi	-11.6612
đáng	-11.6612
national	-11.6615
▁fi	-11.6617
▁cộ	-11.6617
zona	-11.662
ủ	-11.6633
▁gib	-11.6635
dp	-11.6647
giải	-11.6662
úng	-11.6664
▁gallant	-11.6689
▁rèm	-11.6689
▁lhasa	-11.6689
▁toilet	-11.6689
▁buffet	-11.6689
▁moscow	-11.6689
▁scholz	-11.6689
▁liliya	-11.6689
▁waregem	-11.6689
▁hindu	-11.669
▁bulgaria	-11.669
▁levanger	-11.669
▁tempo	-11.669
▁alejandro	-11.669
▁cloud	-11.6691
▁princes	-11.6691
▁sainz	-11.6692
▁challenge	-11.6692
ide	-11.6693
▁giêng	-11.6694
▁masters	-11.6694
ethio	-11.6698
thế	-11.6699
▁antony	-11.6702
▁salem	-11.6704
▁scic	-11.6708
▁rỗng	-11.6709
omas	-11.6709
▁carolin	-11.6712
▁xander	-11.6718
▁andro	-11.6718
▁caryn	-11.6722
▁rì	-11.6723
▁mos	-11.6725
▁vec	-11.6727
▁thản	-11.6732
▁simon	-11.6733
siêu	-11.6741
▁dầm	-11.6742
▁vo	-11.6744
▁chóp	-11.6745
▁robin	-11.6746
▁ngoan	-11.6751
▁nhằn	-11.6756
ov	-11.6773
tra	-11.6774
▁vãn	-11.68
huyên	-11.6809
vua	-11.6811
mer	-11.6812
at	-11.6822
caddie	-11.6835
▁quất	-11.684
iv	-11.6845
wart	-11.6848
▁av	-11.6853
▁nhã	-11.6856
ke	-11.6856
▁page	-11.686
▁estro	-11.6869
heo	-11.6872
castle	-11.6877
ài	-11.6887
arno	-11.6888
yêu	-11.689
phát	-11.6895
▁vượng	-11.6905
ud	-11.6907
ã	-11.6923
elson	-11.6925
▁sul	-11.6925
gate	-11.6952
ft	-11.6992
ôtô	-11.6994
▁eric	-11.6994
eiffe	-11.701
uất	-11.7032
▁gd	-11.7042
dolo	-11.7055
iz	-11.706
▁khoá	-11.7071
iro	-11.7074
erry	-11.709
▁ngất	-11.7093
▁phanh	-11.7095
▁vf	-11.7095
▁aman	-11.7101
▁kw	-11.7113
real	-11.7124
ichir	-11.713
umb	-11.7137
ment	-11.7143
▁đò	-11.7156
▁mắng	-11.7161
▁hun	-11.7161
▁az	-11.7166
lus	-11.7174
ping	-11.7179
hấp	-11.7188
ngay	-11.7194
▁brin	-11.7196
wan	-11.7197
hiến	-11.7204
▁ml	-11.7205
j	-11.7206
▁pr	-11.7212
▁nản	-11.7214
▁toà	-11.7224
▁victor	-11.7233
ey	-11.7237
ũ	-11.7239
▁thẳ	-11.7241
▁ngừ	-11.7243
▁fest	-11.7249
nhân	-11.7254
▁ù	-11.7254
▁gr	-11.7255
muốn	-11.7261
gây	-11.7265
▁gươ	-11.727
▁herpes	-11.7274
▁lđbđ	-11.7274
▁pietro	-11.7274
▁litva	-11.7274
▁kenya	-11.7274
▁giềng	-11.7275
▁fox	-11.7275
▁baidu	-11.7275
▁hills	-11.7276
▁high	-11.7277
▁jannik	-11.7277
▁morocco	-11.7277
▁rudiger	-11.7277
▁luminar	-11.7277
▁ramawan	-11.7277
▁jongun	-11.7278
▁marjorie	-11.7278
▁espresso	-11.7278
▁stanford	-11.7278
▁wimbledon	-11.7278
▁dimitrov	-11.7278
▁universal	-11.7278
▁ngẫu	-11.728
▁smart	-11.728
tháng	-11.7282
▁phil	-11.7284
▁rặng	-11.7285
va	-11.7287
▁brown	-11.729
▁pri	-11.7297
▁jim	-11.7298
▁kazak	-11.7298
▁joan	-11.7301
▁lụt	-11.7306
▁state	-11.7308
modo	-11.7309
led	-11.7312
ộng	-11.7312
▁traf	-11.7322
▁trãi	-11.7325
▁parc	-11.7326
▁land	-11.736
▁kèo	-11.7365
▁ao	-11.7368
▁bio	-11.7372
▁dragon	-11.7374
▁túng	-11.7375
▁bẻ	-11.7386
õng	-11.7389
èn	-11.739
▁giăng	-11.7397
lan	-11.7401
yang	-11.7404
lai	-11.742
▁giò	-11.7425
▁kệ	-11.7427
▁corp	-11.743
▁jun	-11.7432
ion	-11.7446
▁for	-11.7448
osa	-11.7452
im	-11.7457
hen	-11.7471
▁bọn	-11.7473
▁liz	-11.7487
▁sand	-11.7487
▁vâ	-11.7489
nước	-11.7495
▁sora	-11.7499
res	-11.7508
▁vin	-11.752
idas	-11.7524
▁von	-11.7535
▁java	-11.7546
▁maa	-11.7552
vc	-11.757
arris	-11.7575
▁biếc	-11.7581
vũ	-11.7602
▁um	-11.7608
sak	-11.7614
▁fer	-11.7619
▁tâ	-11.7634
▁dạn	-11.7671
▁váng	-11.7678
champions	-11.7679
▁trê	-11.7679
▁stefano	-11.7682
hầu	-11.769
iper	-11.7706
ẩn	-11.7717
las	-11.7723
▁llo	-11.7731
oãn	-11.7733
▁thê	-11.7745
ủa	-11.7751
iji	-11.7752
iên	-11.7759
ova	-11.7761
gue	-11.7766
tuy	-11.7786
▁kiề	-11.7788
sh	-11.7792
▁pc	-11.7795
bản	-11.7798
▁neue	-11.7798
▁robo	-11.7821
ọt	-11.7837
▁teo	-11.7844
▁mary	-11.7848
gia	-11.785
rij	-11.7863
quân	-11.787
▁alphabet	-11.7899
▁dracula	-11.7899
▁linux	-11.7899
▁rontini	-11.7899
▁paolini	-11.7899
▁college	-11.7899
▁laptop	-11.7899
▁sanchez	-11.7899
▁seattle	-11.7899
▁autogate	-11.7899
▁adrian	-11.7899
▁material	-11.7899
▁florence	-11.7899
▁jasim	-11.79
▁adam	-11.79
▁hanoi	-11.79
▁ftc	-11.79
▁kampo	-11.79
▁caffeine	-11.7901
▁gym	-11.7902
▁ruble	-11.7903
▁half	-11.7903
▁nghẹt	-11.7903
▁enrique	-11.7908
▁trứ	-11.7909
▁sùi	-11.791
uyên	-11.7911
▁sẫm	-11.7913
mùa	-11.7914
▁dorse	-11.7915
▁deco	-11.7919
▁poch	-11.7919
▁giặc	-11.7921
▁frank	-11.7922
▁bartender	-11.7923
▁christopher	-11.7924
▁ngụy	-11.7925
hillary	-11.7928
zi	-11.7933
▁bor	-11.7934
smc	-11.7937
▁colo	-11.7941
ink	-11.7946
sberg	-11.7958
▁vênh	-11.7961
tihad	-11.7971
▁token	-11.7971
▁abu	-11.7974
ạc	-11.7979
▁mẩn	-11.7981
it	-11.7983
mand	-11.7987
ku	-11.8
▁hán	-11.8006
tan	-11.8018
▁yo	-11.8025
óp	-11.8041
field	-11.8043
phương	-11.8045
▁vienn	-11.8047
wich	-11.8064
▁las	-11.8087
quy	-11.8092
opping	-11.8099
▁xài	-11.81
kov	-11.8103
▁vn	-11.8104
cậu	-11.8104
▁ntu	-11.8106
▁han	-11.811
▁link	-11.8117
ển	-11.8118
ina	-11.8139
▁nhú	-11.8143
▁nến	-11.8148
lần	-11.8155
ster	-11.8156
mi	-11.8158
clas	-11.8164
bet	-11.8168
cả	-11.8171
▁ồ	-11.8187
▁pra	-11.8191
cũng	-11.8193
ỉnh	-11.8194
▁sent	-11.8194
trận	-11.8207
è	-11.8218
▁sùng	-11.8219
ver	-11.8223
lau	-11.8224
ons	-11.823
▁dell	-11.8231
vẫn	-11.8235
ill	-11.824
tag	-11.8253
▁lor	-11.8257
thông	-11.8258
isor	-11.8258
ales	-11.8261
▁ê	-11.8264
russel	-11.8271
ree	-11.8279
bánh	-11.8283
rice	-11.8311
he	-11.8317
đq	-11.8319
ier	-11.8325
▁sâm	-11.8334
▁tát	-11.8335
▁lank	-11.8344
▁yah	-11.8347
awa	-11.8347
husse	-11.8348
ỳ	-11.8379
ory	-11.8394
sits	-11.8402
tăng	-11.8403
▁bệt	-11.8413
▁thom	-11.8414
nos	-11.8416
▁lat	-11.8417
me	-11.8424
ipad	-11.8433
▁bú	-11.8439
uter	-11.8482
▁mẫ	-11.8487
▁cheo	-11.8487
▁matsu	-11.8488
sky	-11.8491
▁hước	-11.8492
▁oz	-11.8513
▁api	-11.8526
▁drago	-11.8533
▁apollo	-11.8566
▁huflit	-11.8566
▁lumbini	-11.8566
▁midnight	-11.8566
▁philadelphi	-11.8566
▁ankara	-11.8566
▁greenwood	-11.8566
▁silva	-11.8566
▁angola	-11.8566
▁axolotl	-11.8566
▁ftx	-11.8566
▁malik	-11.8566
▁bã	-11.8567
▁valley	-11.8568
▁garden	-11.8569
▁cardio	-11.8569
▁singh	-11.8572
▁xẻ	-11.8573
▁biế	-11.8574
ư	-11.8576
hoạt	-11.8578
▁code	-11.8582
▁gù	-11.859
▁four	-11.8591
▁orl	-11.8593
▁nghiền	-11.8594
blox	-11.8598
▁sha	-11.8598
▁baa	-11.8599
▁sô	-11.8599
phone	-11.86
dy	-11.8602
▁gùi	-11.8603
▁mậu	-11.8604
om	-11.8605
▁mili	-11.861
▁mía	-11.8617
ve	-11.8623
ửi	-11.8625
sco	-11.8628
▁tower	-11.8633
ợng	-11.8637
▁count	-11.8648
▁cóc	-11.8654
wi	-11.8663
▁diễ	-11.8665
llison	-11.8666
đầu	-11.8669
▁kén	-11.867
▁team	-11.8682
▁thấ	-11.8684
rter	-11.8694
▁chiêng	-11.8707
▁trũng	-11.8712
▁shi	-11.8716
▁xước	-11.8729
hiva	-11.873
erman	-11.8731
ven	-11.8733
uda	-11.8733
st	-11.8733
▁inc	-11.8734
ib	-11.8735
coin	-11.874
▁son	-11.8752
bis	-11.8755
▁ngó	-11.8758
▁wei	-11.8763
ers	-11.8782
w	-11.8783
▁bot	-11.8783
▁vá	-11.8797
chặt	-11.8823
pas	-11.8823
bà	-11.8832
kẻ	-11.8834
hoàn	-11.8841
mức	-11.885
zine	-11.8854
▁khải	-11.8856
▁brit	-11.8867
tae	-11.8869
▁mv	-11.8878
▁chêm	-11.888
▁herm	-11.8897
▁glas	-11.8903
▁nhái	-11.8905
▁gold	-11.891
▁yama	-11.8915
ốn	-11.8916
red	-11.8919
▁rông	-11.8919
▁tít	-11.8924
uỷ	-11.8942
đội	-11.8959
▁andrea	-11.8981
lực	-11.8986
vô	-11.8997
ame	-11.9009
vđ	-11.9019
phần	-11.9023
inh	-11.9027
hay	-11.9027
▁ke	-11.9028
ott	-11.903
ngân	-11.9037
bỏ	-11.9041
▁hăng	-11.9042
▁hã	-11.9049
vụ	-11.9053
▁dạt	-11.9056
▁lầ	-11.9063
bo	-11.9067
chĩa	-11.9078
▁tẻ	-11.9082
úc	-11.9083
av	-11.909
▁trướ	-11.9098
sburg	-11.9109
nữ	-11.9117
▁jenn	-11.9118
tivi	-11.9118
đ	-11.9132
▁cuốc	-11.9154
▁sộ	-11.9156
▁nêm	-11.9156
động	-11.9174
ãi	-11.9182
▁nad	-11.9185
olate	-11.9187
alta	-11.9189
▁trail	-11.9189
stro	-11.9197
▁tống	-11.9198
oj	-11.9199
▁roy	-11.9206
enger	-11.9207
lm	-11.9247
▁trù	-11.9266
▁telegra	-11.9274
▁ocean	-11.928
▁atalanta	-11.928
▁berkshire	-11.928
▁bernadette	-11.928
▁forbes	-11.928
▁lisbon	-11.928
▁rublico	-11.928
▁wisconsin	-11.928
▁krasnodar	-11.928
▁junior	-11.928
▁bửu	-11.928
▁onana	-11.928
▁prenn	-11.928
▁emirates	-11.9281
▁festival	-11.9281
▁palace	-11.9281
▁gomez	-11.9281
▁biếng	-11.9282
phòng	-11.9282
▁arena	-11.9282
▁mtv	-11.9283
▁ppp	-11.9284
ertru	-11.9286
▁ngẫm	-11.9288
▁ram	-11.9298
▁rớt	-11.9304
llivan	-11.9304
▁đôla	-11.9304
naldo	-11.9305
▁ngò	-11.9306
▁amd	-11.9306
▁andrew	-11.9306
dè	-11.9311
▁olympia	-11.9315
▁viền	-11.9316
logger	-11.932
▁rỗi	-11.9323
▁chạp	-11.9327
▁gáy	-11.9327
▁vạc	-11.9331
▁floren	-11.9334
ru	-11.9335
▁cape	-11.9336
tech	-11.9339
▁nhỉnh	-11.9342
▁ngấm	-11.9343
vka	-11.9344
▁nhốt	-11.9358
hương	-11.9363
▁miên	-11.9368
cá	-11.9368
sandro	-11.9368
ister	-11.9371
▁wu	-11.9372
uni	-11.9374
hệ	-11.9377
▁ngơ	-11.9377
hle	-11.9382
▁bora	-11.9387
▁ginger	-11.9388
▁melani	-11.9389
ùa	-11.9391
▁hó	-11.9393
▁mạ	-11.9396
▁company	-11.9397
▁bươ	-11.9398
hận	-11.94
ky	-11.9412
▁chuồng	-11.9412
ững	-11.9417
ji	-11.9431
▁amat	-11.9432
▁ji	-11.9435
▁gare	-11.9438
ẹt	-11.9452
▁trâ	-11.9455
out	-11.9458
nghỉ	-11.9459
latin	-11.9464
▁central	-11.9468
giờ	-11.9477
ran	-11.9477
sk	-11.948
▁shibu	-11.9486
ini	-11.9489
vos	-11.9501
hoa	-11.9504
▁out	-11.9505
▁bai	-11.9507
ip	-11.9516
▁phồng	-11.9521
iễu	-11.9531
ollong	-11.9533
▁mount	-11.9539
ogo	-11.9541
▁debr	-11.9541
ươ	-11.9546
mỹ	-11.9549
▁uf	-11.9556
iến	-11.9575
▁vina	-11.9578
biển	-11.958
lar	-11.9594
▁nạc	-11.9595
▁dart	-11.9607
ville	-11.9609
uộc	-11.962
ice	-11.9629
lao	-11.963
combo	-11.9636
▁yu	-11.9653
thi	-11.9653
tập	-11.966
chào	-11.9662
ổng	-11.9669
▁ngẩn	-11.9669
▁christ	-11.9675
xiên	-11.9676
▁toa	-11.9685
fi	-11.9686
▁stockho	-11.9698
▁bư	-11.9706
▁đán	-11.9706
baum	-11.9708
ả	-11.971
pus	-11.9711
home	-11.9729
▁rê	-11.9739
▁vna	-11.9741
tay	-11.9742
ocu	-11.9756
▁reo	-11.9759
oi	-11.9763
gbt	-11.9766
trải	-11.9781
▁phả	-11.9783
beck	-11.9786
ntorin	-11.9788
der	-11.9805
esca	-11.9819
▁ron	-11.982
cầu	-11.9821
mila	-11.9844
▁nhọ	-11.9846
tha	-11.9847
▁him	-11.9849
▁hé	-11.9859
▁gu	-11.9865
▁hệt	-11.9871
oint	-11.9878
▁tal	-11.988
▁falc	-11.9885
ula	-11.9893
bảo	-11.9894
ayer	-11.9899
▁niê	-11.9899
▁bow	-11.9901
▁kara	-11.9902
▁vớt	-11.9903
mai	-11.9907
êu	-11.9909
▁mó	-11.9914
▁wi	-11.9925
còn	-11.9926
▁rodr	-11.9926
▁báu	-11.9934
▁đềm	-11.9935
▁đẽ	-11.9936
▁josep	-11.9944
ứng	-11.9972
espa	-11.9976
kết	-11.9981
▁koe	-12.0001
▁mira	-12.0005
▁bô	-12.0006
ics	-12.001
est	-12.0011
abi	-12.0016
ric	-12.0017
chồng	-12.0025
sg	-12.0027
low	-12.003
ayla	-12.0031
▁beck	-12.0034
mua	-12.0036
ioc	-12.0036
tiếp	-12.0039
▁lug	-12.004
ad	-12.0045
▁francis	-12.0049
▁intercontinent	-12.0049
▁gvardiol	-12.005
▁santiago	-12.005
▁unrwa	-12.005
▁borobudu	-12.005
▁foundation	-12.005
▁leicester	-12.005
▁ultra	-12.005
▁bbq	-12.005
▁lutein	-12.005
▁tuchel	-12.005
▁airbus	-12.005
▁england	-12.005
▁joselu	-12.005
▁saigon	-12.0051
▁jake	-12.0051
▁power	-12.0051
▁ftt	-12.0051
▁cyb	-12.0052
▁mykola	-12.0052
▁tiger	-12.0052
ania	-12.0053
▁mrna	-12.0054
▁corona	-12.0054
▁kathle	-12.0055
▁trươ	-12.0057
▁electr	-12.0061
▁zhu	-12.0062
▁karp	-12.0063
▁mỉm	-12.0067
olga	-12.0069
▁bob	-12.0072
▁xùa	-12.0072
▁carlsen	-12.0077
▁vỹ	-12.0077
▁pick	-12.008
▁vuốt	-12.008
▁dẻ	-12.0084
bước	-12.0088
▁persi	-12.009
▁mè	-12.009
▁nặn	-12.0091
oman	-12.0093
▁infos	-12.0094
vợ	-12.0094
▁ferrari	-12.0102
▁sin	-12.0104
uate	-12.0107
▁nháy	-12.0109
▁walker	-12.0113
ob	-12.0114
agari	-12.0114
đau	-12.0117
▁mauric	-12.0121
ave	-12.0123
▁max	-12.0123
den	-12.0127
▁mura	-12.013
▁búp	-12.013
▁ken	-12.013
ecb	-12.0132
▁xưng	-12.0136
▁payp	-12.0141
nes	-12.0143
▁nagar	-12.0145
▁thốn	-12.0147
▁gang	-12.0147
cứ	-12.0149
murdo	-12.0154
byte	-12.0159
ation	-12.0161
▁good	-12.0162
àn	-12.0162
watch	-12.0162
olo	-12.0164
▁hoff	-12.0166
▁sup	-12.0168
andu	-12.0171
▁ngu	-12.0171
▁bran	-12.0172
▁vê	-12.0176
cực	-12.0183
▁saka	-12.0185
▁seas	-12.019
aribe	-12.0194
ador	-12.0195
cay	-12.0196
thy	-12.0201
▁greg	-12.0203
▁fu	-12.0206
line	-12.0211
▁bứ	-12.0211
▁thắm	-12.0222
▁vụn	-12.0225
úi	-12.0228
▁ập	-12.0234
dance	-12.0242
chữa	-12.0243
wh	-12.0244
▁miến	-12.0246
cơn	-12.0253
itz	-12.0257
▁dna	-12.0257
▁aud	-12.0273
dine	-12.0288
ino	-12.03
bật	-12.0308
eik	-12.031
ettin	-12.0324
▁break	-12.0325
▁hp	-12.0332
▁shah	-12.0342
nằm	-12.0345
phi	-12.0347
▁xắ	-12.0367
cày	-12.0368
chủ	-12.0375
▁trộ	-12.0377
hey	-12.038
racle	-12.0389
đừng	-12.0411
▁alan	-12.0419
▁gồ	-12.0431
▁ju	-12.0434
▁up	-12.0435
uỗi	-12.0437
san	-12.0442
nơi	-12.0461
ain	-12.0469
hơn	-12.0471
oid	-12.0475
▁atlant	-12.0483
phá	-12.0488
uyễn	-12.0493
▁mma	-12.0496
▁varan	-12.0496
mo	-12.0501
kin	-12.051
chạy	-12.0516
sey	-12.0518
▁lâ	-12.052
▁ry	-12.0522
▁sắn	-12.053
▁tand	-12.0538
sao	-12.0544
▁thuyên	-12.0547
▁mari	-12.0555
▁maha	-12.0558
▁str	-12.056
iano	-12.0568
bãi	-12.0574
▁trá	-12.0576
shb	-12.0576
ando	-12.0586
thị	-12.0593
áy	-12.0594
▁caro	-12.06
kale	-12.0625
▁mác	-12.0626
hơi	-12.0631
hình	-12.0645
▁time	-12.0648
rner	-12.0652
▁vự	-12.0652
địa	-12.0654
▁maldi	-12.0655
ana	-12.0662
tiếng	-12.0667
▁sec	-12.0672
▁goth	-12.0675
dit	-12.0676
▁sara	-12.0682
bie	-12.0688
lãnh	-12.0697
bài	-12.07
▁lă	-12.0702
mera	-12.0706
uyến	-12.0713
ận	-12.0719
trái	-12.072
▁phớ	-12.0721
hưởng	-12.0724
bush	-12.0728
▁ấp	-12.0729
ừ	-12.0731
ắc	-12.0733
▁hog	-12.0736
hết	-12.0738
uyển	-12.0754
▁ngùn	-12.0761
sit	-12.0766
ì	-12.0776
bul	-12.0783
▁điê	-12.0785
▁mcke	-12.0789
▁beliz	-12.0794
hà	-12.0796
▁ce	-12.0809
▁pi	-12.0816
chuyện	-12.0829
roy	-12.0831
▁chảnh	-12.0832
▁gam	-12.0838
▁chale	-12.084
▁úp	-12.0852
▁thoả	-12.0859
tiêu	-12.086
▁biê	-12.0862
▁ronald	-12.0872
▁wolf	-12.0879
đà	-12.0879
▁leclerc	-12.0883
▁alonso	-12.0883
▁cappuc	-12.0883
▁crystal	-12.0883
▁leipzig	-12.0883
▁lewandowski	-12.0883
▁photpho	-12.0883
▁vatican	-12.0883
▁capello	-12.0883
▁ahmed	-12.0883
▁asml	-12.0883
▁securit	-12.0883
▁holding	-12.0883
▁clark	-12.0883
▁asean	-12.0883
▁vietnamnow	-12.0883
▁hernandez	-12.0883
▁windows	-12.0883
▁early	-12.0883
▁ferdinand	-12.0884
▁marriott	-12.0884
▁supach	-12.0884
kho	-12.0884
▁ncov	-12.0884
kaido	-12.0884
nnell	-12.0884
▁massachusetts	-12.0885
▁dumping	-12.0885
▁sevilla	-12.0885
▁pompe	-12.0885
▁lõm	-12.0886
▁brook	-12.0887
▁giỏ	-12.089
▁muỗng	-12.089
▁cnn	-12.0892
▁euv	-12.0893
▁kiốt	-12.0895
▁sports	-12.0895
ường	-12.0897
let	-12.09
▁iron	-12.0905
cino	-12.0906
▁weiss	-12.0909
▁lén	-12.091
▁niger	-12.091
gu	-12.091
▁arteta	-12.0911
▁vorayuth	-12.0912
▁river	-12.0912
▁yoon	-12.0912
▁burke	-12.092
ac	-12.0925
▁caf	-12.0925
▁nico	-12.0928
▁justin	-12.0929
▁ngụt	-12.0932
▁oan	-12.0935
▁lula	-12.0938
▁great	-12.0939
▁motor	-12.0943
úy	-12.0944
▁doge	-12.0947
hassan	-12.096
enko	-12.0967
▁pierre	-12.0968
▁amh	-12.097
ui	-12.0978
rick	-12.0981
il	-12.0981
dee	-12.0983
▁sense	-12.0986
imoth	-12.0991
▁thớt	-12.0993
▁ghê	-12.0995
▁gun	-12.0998
ền	-12.1
▁doug	-12.1004
▁bagg	-12.101
▁khuy	-12.1014
▁sọ	-12.1016
bodh	-12.1018
bao	-12.102
▁wha	-12.1023
sel	-12.1028
▁giũ	-12.1035
quả	-12.1037
▁nín	-12.1038
▁as	-12.1048
▁wong	-12.1054
▁schwa	-12.106
dro	-12.106
▁yum	-12.1071
ehra	-12.1074
▁shop	-12.1076
▁trip	-12.1087
lissa	-12.1088
▁pen	-12.1088
▁rock	-12.1104
▁tee	-12.1117
▁ayme	-12.1117
ìa	-12.1121
▁by	-12.1133
▁claudi	-12.1137
ebet	-12.114
▁mont	-12.1145
▁lòa	-12.1146
▁news	-12.1148
▁big	-12.1162
be	-12.1165
▁coco	-12.1166
ngôi	-12.117
▁key	-12.1177
ém	-12.1178
ura	-12.1185
ngon	-12.1186
lê	-12.119
▁kei	-12.1195
via	-12.1201
▁jas	-12.1214
sức	-12.1215
tô	-12.1227
▁sòng	-12.1229
▁hash	-12.1252
▁jerem	-12.1253
tội	-12.1255
▁nháp	-12.1257
cin	-12.1262
▁chóc	-12.1273
▁rodri	-12.1277
oản	-12.1285
tác	-12.1288
▁rim	-12.1301
▁nép	-12.1303
quyền	-12.1306
khủng	-12.1321
▁mày	-12.1323
▁kobe	-12.1326
▁mí	-12.1327
▁anna	-12.1331
▁bấ	-12.1333
▁love	-12.1336
mark	-12.1347
▁cer	-12.1351
copen	-12.1353
▁gầ	-12.1357
gian	-12.1363
▁titan	-12.1365
baume	-12.137
nói	-12.1374
▁khuê	-12.1383
▁vy	-12.1386
▁tiê	-12.1393
▁hắt	-12.1393
ica	-12.1405
▁ala	-12.142
▁xôn	-12.1423
▁zhou	-12.1423
rum	-12.1425
▁pla	-12.1426
tuổi	-12.145
hẹn	-12.1451
huỷ	-12.1454
und	-12.1459
oney	-12.1461
▁trụi	-12.1462
ern	-12.1463
vừa	-12.1467
▁đàng	-12.1469
level	-12.1477
viên	-12.1481
▁vip	-12.1482
ber	-12.1483
▁hấu	-12.1486
▁work	-12.1497
eres	-12.1503
mẹ	-12.1511
▁tip	-12.1516
bia	-12.1517
rizon	-12.1519
cảnh	-12.1524
ove	-12.1528
▁tech	-12.1546
▁kol	-12.155
▁wale	-12.1562
▁ball	-12.1562
ely	-12.1563
▁josh	-12.1567
▁ơ	-12.1582
▁khít	-12.1597
berg	-12.1603
hose	-12.161
▁đờ	-12.1612
rs	-12.1612
▁ngo	-12.1613
▁bank	-12.1623
▁mit	-12.1628
iloi	-12.1629
nên	-12.1635
▁hắc	-12.1636
▁penh	-12.1645
ưởi	-12.1651
gey	-12.1653
▁au	-12.1657
▁mương	-12.166
asia	-12.1667
▁stati	-12.167
▁hiê	-12.168
ge	-12.1681
uốc	-12.1687
▁chang	-12.1688
af	-12.1689
umin	-12.1696
ts	-12.1703
air	-12.1721
▁rao	-12.1725
sra	-12.173
quốc	-12.1744
elly	-12.1747
trick	-12.1753
ondo	-12.1758
ala	-12.1759
bên	-12.1766
▁kham	-12.1778
văn	-12.1785
uite	-12.179
ads	-12.1791
▁mimosa	-12.1792
▁podcast	-12.1792
▁scolyer	-12.1792
▁southampton	-12.1792
▁stuttgart	-12.1792
▁yermolenko	-12.1792
▁diamond	-12.1792
▁brother	-12.1792
▁kuwait	-12.1792
▁tracking	-12.1792
▁sinwar	-12.1792
▁brentford	-12.1792
▁maguire	-12.1792
▁phnom	-12.1792
▁revolution	-12.1792
▁neural	-12.1792
▁canyon	-12.1792
▁logistics	-12.1792
▁thaksin	-12.1792
▁kirby	-12.1792
▁daniil	-12.1792
▁hamburg	-12.1793
holm	-12.1793
▁blanche	-12.1793
▁youss	-12.1794
▁yam	-12.1794
▁ngoằn	-12.1794
▁bernard	-12.1796
▁nhõm	-12.1796
▁nhòm	-12.1797
▁leonard	-12.1798
▁balti	-12.1799
▁rơm	-12.1799
▁rọi	-12.18
oslo	-12.1801
▁kiss	-12.1803
uss	-12.1803
lish	-12.1804
▁rợp	-12.1804
ker	-12.1804
▁vạ	-12.1805
hal	-12.1813
▁ruổi	-12.1818
philippines	-12.1818
▁yellen	-12.1819
▁mịt	-12.1819
▁pss	-12.182
▁alien	-12.182
đề	-12.182
▁quặc	-12.182
thiếu	-12.1822
▁beta	-12.1826
▁ghẹ	-12.1826
▁rét	-12.1829
▁trĩ	-12.1831
▁vinc	-12.1832
▁brat	-12.1834
▁selen	-12.1836
▁virgin	-12.1838
tài	-12.184
▁evan	-12.184
▁xỉu	-12.1841
vượt	-12.1844
tránh	-12.1844
▁giga	-12.1848
rận	-12.1848
▁gps	-12.1852
hưng	-12.1862
▁mứt	-12.1869
▁saint	-12.1869
▁ug	-12.187
▁ub	-12.188
▁mel	-12.1881
▁són	-12.1883
vana	-12.1883
▁lake	-12.1888
tư	-12.1888
tinh	-12.1889
vào	-12.1897
▁amy	-12.1899
▁dome	-12.1904
xon	-12.1905
▁ams	-12.1906
bach	-12.1907
ủng	-12.1909
▁mom	-12.1914
▁kau	-12.1921
nna	-12.1922
▁post	-12.1931
▁hok	-12.1937
anime	-12.1961
▁bright	-12.1967
hồi	-12.1967
bom	-12.197
enter	-12.1971
▁hamda	-12.199
of	-12.1992
▁kansa	-12.1994
ghi	-12.1999
▁gala	-12.1999
trẻ	-12.2003
▁ber	-12.2008
test	-12.2014
▁jord	-12.203
▁aa	-12.2032
ider	-12.2039
▁cp	-12.2043
aw	-12.2048
chuyên	-12.2054
fish	-12.2059
video	-12.2059
ius	-12.2067
olis	-12.2069
▁xáo	-12.2071
▁muống	-12.2079
ir	-12.208
nic	-12.2086
▁asia	-12.2095
▁tiế	-12.2095
nhờ	-12.2102
ram	-12.2109
▁reye	-12.2116
▁wag	-12.2128
dortmund	-12.2133
uela	-12.2141
▁nhàn	-12.215
▁stone	-12.2151
si	-12.2159
lyn	-12.2161
vo	-12.217
▁xo	-12.2171
uk	-12.2172
▁banno	-12.2173
hát	-12.2182
rona	-12.2184
▁rb	-12.2187
▁đùn	-12.2189
vòng	-12.2192
bouti	-12.2193
▁nus	-12.2193
▁xú	-12.2204
▁yoo	-12.2204
elong	-12.2219
▁zal	-12.222
▁emma	-12.222
▁sục	-12.2228
aja	-12.2229
▁ná	-12.2237
int	-12.2238
ite	-12.2248
ớ	-12.2249
▁nhúng	-12.2259
▁nă	-12.2259
▁dream	-12.2271
luten	-12.2273
▁sarach	-12.2276
đức	-12.2285
nken	-12.2289
hố	-12.2292
▁walt	-12.2293
▁xv	-12.2306
húng	-12.2316
usk	-12.2317
▁krist	-12.2333
▁nhum	-12.2341
▁xù	-12.2352
▁mui	-12.2357
▁hat	-12.236
hợp	-12.2366
đảo	-12.2366
by	-12.237
my	-12.2385
ecu	-12.2385
▁ton	-12.2386
iga	-12.2386
▁mod	-12.2396
ium	-12.2396
▁gate	-12.2404
oo	-12.2416
tóm	-12.2424
▁vol	-12.2431
▁are	-12.2438
▁jama	-12.2443
▁nhai	-12.2452
▁ab	-12.2457
▁pu	-12.2463
jan	-12.2466
▁luca	-12.2472
▁thiê	-12.2491
nhất	-12.2494
mít	-12.2499
scar	-12.2505
rt	-12.2509
▁ping	-12.2521
kaim	-12.2523
top	-12.2527
▁sabi	-12.2533
oải	-12.2538
▁corti	-12.2542
▁cz	-12.2551
▁leon	-12.2556
▁cau	-12.2559
▁thong	-12.2565
▁stephen	-12.257
làng	-12.2579
ken	-12.2581
▁khoả	-12.2592
▁clim	-12.2597
▁hả	-12.2604
run	-12.2624
acar	-12.2638
ries	-12.2642
▁wai	-12.2646
▁act	-12.2652
▁gal	-12.2663
▁at	-12.2666
short	-12.2669
zuma	-12.2674
kh	-12.2674
karta	-12.2692
eiro	-12.2693
▁it	-12.2698
uẩn	-12.2737
▁rum	-12.2741
antas	-12.2744
tính	-12.275
trump	-12.276
ue	-12.2769
hủy	-12.2779
▁albert	-12.278
tern	-12.2783
▁myko	-12.279
orsk	-12.2791
▁anderlecht	-12.2792
▁gazprom	-12.2792
▁jeremiah	-12.2792
▁karakurt	-12.2792
▁matthaus	-12.2792
▁plantation	-12.2792
▁polyphenol	-12.2792
▁uruguay	-12.2792
▁alfred	-12.2792
▁gabriel	-12.2792
▁project	-12.2792
▁hotline	-12.2792
▁shugend	-12.2792
▁suslov	-12.2792
▁potala	-12.2792
▁earth	-12.2792
▁picchu	-12.2792
▁general	-12.2792
bourne	-12.2792
▁valentine	-12.2793
▁vegas	-12.2793
▁expo	-12.2793
▁capit	-12.2793
▁yorkshire	-12.2793
▁betia	-12.2793
evada	-12.2794
▁wilson	-12.2794
▁pratt	-12.2794
weight	-12.2795
▁manila	-12.2795
▁vẹm	-12.2795
ảng	-12.2797
▁mbgiây	-12.2798
▁mỗ	-12.2799
▁afp	-12.28
▁beer	-12.2801
phân	-12.2802
▁luồn	-12.2804
flex	-12.2804
shire	-12.2806
▁vtc	-12.2806
▁llm	-12.2812
▁mr	-12.2814
▁lukas	-12.2816
bour	-12.2817
▁rụm	-12.2817
▁gran	-12.282
▁hsb	-12.282
baba	-12.2821
▁lẫm	-12.2825
▁doji	-12.2825
well	-12.2828
sinh	-12.2829
dogan	-12.2832
▁crist	-12.2839
chú	-12.2839
▁spo	-12.2839
hóng	-12.284
sáng	-12.2843
▁music	-12.2844
▁taj	-12.2848
phản	-12.285
▁gắp	-12.2851
▁ngáy	-12.2852
▁xie	-12.2855
book	-12.2856
▁andri	-12.2859
vic	-12.2861
▁fuku	-12.2861
▁xép	-12.2861
▁ernand	-12.2863
▁viế	-12.2875
thiên	-12.2881
sang	-12.2881
board	-12.2883
▁ney	-12.2883
▁wat	-12.2888
iness	-12.2889
daki	-12.2893
▁hằn	-12.2894
▁bric	-12.2894
▁thỏ	-12.2899
▁nghè	-12.2901
ký	-12.2903
▁hud	-12.2906
hagen	-12.2906
bán	-12.2909
▁michi	-12.2911
▁den	-12.2915
hỏa	-12.2916
▁sít	-12.2916
▁kamal	-12.2917
▁rub	-12.2924
▁ful	-12.293
▁pisa	-12.2933
▁wy	-12.2934
▁val	-12.2942
eville	-12.2945
đàn	-12.2945
lon	-12.2946
uala	-12.2949
▁nhát	-12.2956
▁thố	-12.2956
▁marin	-12.296
▁lodge	-12.2963
▁arnau	-12.2965
▁peri	-12.297
▁jong	-12.2987
bel	-12.299
▁sảnh	-12.2992
▁thét	-12.2995
ù	-12.3004
chelle	-12.301
tzer	-12.3011
arez	-12.3012
▁gra	-12.3012
▁your	-12.302
aliba	-12.3021
tree	-12.3025
ề	-12.3025
dia	-12.3032
alle	-12.3032
isha	-12.3038
▁nand	-12.3041
▁market	-12.3041
▁fren	-12.3049
▁tuôn	-12.305
nathan	-12.305
▁đốm	-12.3051
lumbi	-12.3052
▁wars	-12.3076
▁nấ	-12.3082
▁art	-12.3085
▁water	-12.3086
form	-12.3088
thể	-12.3108
pháo	-12.3116
▁med	-12.3116
▁dồ	-12.3124
▁race	-12.3138
mann	-12.3139
▁raim	-12.3143
ghan	-12.3143
▁hoán	-12.315
iffe	-12.3156
đất	-12.3157
oku	-12.3158
ểm	-12.3165
▁ster	-12.317
▁sạ	-12.3173
ose	-12.3177
▁data	-12.3195
▁giương	-12.3196
▁ivank	-12.3211
po	-12.3214
▁sali	-12.3221
▁mell	-12.3234
bar	-12.324
▁boo	-12.3246
wal	-12.3246
oke	-12.3254
ởi	-12.326
ỗ	-12.3264
ris	-12.3269
▁sek	-12.3278
ckout	-12.3279
tam	-12.3281
augh	-12.3282
lt	-12.3288
▁bori	-12.3293
hower	-12.3294
▁iss	-12.3307
sia	-12.3308
ria	-12.331
▁fede	-12.3311
▁turn	-12.3312
▁flo	-12.3323
▁hú	-12.3324
ví	-12.3326
▁kiri	-12.3332
tp	-12.3337
▁kno	-12.3338
▁maxi	-12.334
wa	-12.3342
gửi	-12.3345
imba	-12.3345
đẹp	-12.3356
▁sir	-12.3357
hibau	-12.3363
ph	-12.3366
ex	-12.3367
▁tía	-12.3382
▁sak	-12.3387
phí	-12.3391
▁master	-12.3393
▁hand	-12.34
otel	-12.3406
ijk	-12.3408
chu	-12.341
ture	-12.3415
▁sol	-12.3422
vương	-12.3427
ye	-12.3441
ĩ	-12.3443
▁conce	-12.345
▁trăn	-12.3465
shing	-12.347
▁gaya	-12.3476
▁typho	-12.3479
phố	-12.3481
iếu	-12.3483
otter	-12.3488
tuần	-12.3504
▁câ	-12.3506
▁dì	-12.3506
sv	-12.3507
▁works	-12.3518
▁br	-12.3522
negro	-12.3526
break	-12.3531
▁hốc	-12.3544
▁ship	-12.3559
liệu	-12.3561
tar	-12.3565
ụt	-12.3566
▁suk	-12.3576
ille	-12.3577
lợi	-12.3594
ola	-12.3605
fa	-12.3614
ovic	-12.3637
urd	-12.3637
lombo	-12.3646
ảm	-12.3646
iêm	-12.3649
tương	-12.365
▁war	-12.3654
trả	-12.3668
rio	-12.3668
chân	-12.3681
hlv	-12.3686
ell	-12.3691
▁champa	-12.3692
▁swi	-12.3697
tor	-12.3702
ời	-12.3704
rby	-12.3706
iss	-12.371
sado	-12.3725
▁vnp	-12.3725
▁nhậ	-12.3729
ight	-12.3731
▁win	-12.3732
gmt	-12.3742
▁orb	-12.3764
▁day	-12.377
săn	-12.3777
mặt	-12.3778
kito	-12.378
erli	-12.3792
mất	-12.3797
ạn	-12.3806
dc	-12.3807
▁phò	-12.3812
▁nòng	-12.3812
hang	-12.3823
khá	-12.3823
fe	-12.3825
▁toan	-12.3829
▁nhét	-12.3829
ut	-12.3837
▁fre	-12.3853
▁wor	-12.3855
ctor	-12.3863
▁narayan	-12.3869
llage	-12.3886
▁serge	-12.3894
▁noa	-12.3895
ure	-12.3897
har	-12.3899
▁media	-12.3899
ecen	-12.39
▁aleksand	-12.3902
▁oxalis	-12.3903
▁verstappen	-12.3903
▁abdullah	-12.3903
▁adenosine	-12.3903
▁alaqsa	-12.3903
▁alsultan	-12.3903
▁bavaria	-12.3903
▁bungalow	-12.3903
▁cachtice	-12.3903
▁enzym	-12.3903
▁frankfurt	-12.3903
▁graffiti	-12.3903
▁megapixel	-12.3903
▁reuters	-12.3903
▁scandinavi	-12.3903
▁system	-12.3903
▁umerov	-12.3903
▁xhaka	-12.3903
▁zaporizh	-12.3903
▁toulouse	-12.3903
▁kilomet	-12.3903
▁berkay	-12.3903
▁galpin	-12.3903
▁jonathan	-12.3903
▁ubud	-12.3903
▁jeffrey	-12.3903
▁eberl	-12.3903
▁eisen	-12.3904
▁gamestop	-12.3904
▁younis	-12.3904
▁collinson	-12.3904
▁raisi	-12.3904
▁costa	-12.3906
▁millennial	-12.3906
▁fire	-12.3906
▁zhao	-12.3906
▁health	-12.3907
oration	-12.3907
▁leeds	-12.3908
▁opec	-12.3908
ìm	-12.3909
▁lú	-12.3909
▁memor	-12.3909
▁vks	-12.3912
▁apply	-12.3912
▁marcelo	-12.3914
▁brent	-12.3916
▁dass	-12.3919
▁mana	-12.3919
▁manet	-12.392
oa	-12.392
▁ccg	-12.3921
thần	-12.3922
▁macca	-12.3922
▁rưới	-12.3923
cố	-12.3923
▁techo	-12.3924
▁syp	-12.3924
▁fortun	-12.393
arova	-12.3931
habi	-12.3935
cliff	-12.3935
▁om	-12.3935
▁beni	-12.3938
▁olivi	-12.3942
▁feli	-12.3942
▁gợn	-12.3944
usine	-12.3945
▁cas	-12.3945
ja	-12.395
sbur	-12.3954
▁sum	-12.3956
kỷ	-12.3956
▁nhầy	-12.3957
▁toei	-12.3958
▁sho	-12.3959
▁cớ	-12.3963
▁vincen	-12.3965
▁rợn	-12.3965
▁finn	-12.3971
▁usdm	-12.3972
▁náu	-12.3977
▁edu	-12.3989
onis	-12.399
ắp	-12.3992
▁pemb	-12.3996
▁met	-12.4
muk	-12.4001
ớp	-12.4002
▁nư	-12.4008
amene	-12.401
▁eos	-12.402
▁ươ	-12.402
▁head	-12.402
aco	-12.4023
▁seb	-12.4027
nghĩa	-12.4036
roth	-12.4041
▁vas	-12.4043
▁ei	-12.4048
▁corn	-12.405
▁mora	-12.4051
▁reap	-12.4053
▁quàng	-12.4054
yansk	-12.4055
sử	-12.4056
nice	-12.4059
â	-12.4059
lippi	-12.4061
schne	-12.4061
shan	-12.4063
▁maca	-12.4064
sik	-12.4066
▁free	-12.4068
▁ex	-12.4079
▁bren	-12.4084
▁low	-12.409
▁nova	-12.409
▁lei	-12.4093
quyết	-12.4095
▁cat	-12.4105
▁back	-12.4109
▁atis	-12.411
ele	-12.4111
▁nano	-12.4111
kha	-12.4115
umble	-12.4116
▁nắn	-12.412
xan	-12.412
ali	-12.413
doanh	-12.4141
▁tí	-12.4144
▁thon	-12.4144
▁warr	-12.4145
dor	-12.4154
ờn	-12.4154
ùm	-12.4157
tel	-12.4165
▁alli	-12.4171
tham	-12.4172
ỡn	-12.4175
▁lum	-12.4177
kan	-12.4184
hồ	-12.4188
í	-12.4189
tim	-12.419
aur	-12.4194
▁meg	-12.4202
▁xó	-12.4206
rõ	-12.4211
lot	-12.4227
ò	-12.4227
bằng	-12.4241
▁bìa	-12.4242
thịt	-12.4245
nóng	-12.4246
▁marcel	-12.4251
ack	-12.4254
▁popp	-12.4255
bức	-12.4256
we	-12.4263
▁magu	-12.4274
dấu	-12.4275
▁múc	-12.4282
▁diff	-12.4282
lượng	-12.4289
▁sal	-12.4298
ada	-12.4302
ố	-12.4302
mới	-12.4304
sản	-12.4305
chắc	-12.4305
hạn	-12.4314
▁ào	-12.4316
hq	-12.432
▁gel	-12.432
oni	-12.4323
▁thiếp	-12.4327
undo	-12.4339
apple	-12.4341
dini	-12.4342
hoáng	-12.4344
▁woo	-12.435
▁rành	-12.4355
ston	-12.4358
ạ	-12.4359
rang	-12.4363
háo	-12.4369
▁nas	-12.437
xy	-12.4378
azzar	-12.4383
phạt	-12.4391
▁lụ	-12.4391
▁đạ	-12.44
aub	-12.4407
sở	-12.441
tủ	-12.4412
▁casa	-12.4412
ss	-12.4421
▁samu	-12.4424
▁zo	-12.4425
chết	-12.443
căn	-12.4435
chiếc	-12.4439
▁af	-12.4445
▁tru	-12.4448
▁christi	-12.4476
tour	-12.448
▁stanis	-12.4499
trợ	-12.4502
rome	-12.4519
rich	-12.4522
▁cược	-12.4527
▁trút	-12.4531
diễn	-12.4534
kes	-12.4535
biến	-12.4536
▁đóa	-12.4545
ùn	-12.4547
▁nhục	-12.4547
tr	-12.4549
▁res	-12.4553
▁eco	-12.4553
tìm	-12.4559
▁fo	-12.4562
▁ivan	-12.4565
song	-12.4576
hiếp	-12.4577
giới	-12.4582
▁amin	-12.4584
illa	-12.4586
▁class	-12.4587
wall	-12.459
ú	-12.4593
sỉ	-12.4605
az	-12.4607
sợ	-12.4608
angko	-12.4617
ary	-12.4619
atha	-12.4621
up	-12.4636
▁tara	-12.4642
eal	-12.465
thách	-12.4659
joe	-12.4683
▁cher	-12.4699
▁vờ	-12.4699
này	-12.4701
▁stan	-12.4707
dưới	-12.4707
▁tằm	-12.4713
▁lucia	-12.4713
▁lock	-12.4724
ườm	-12.4727
allen	-12.4728
mart	-12.4733
▁óng	-12.4736
món	-12.4738
tiến	-12.4743
▁alban	-12.4747
▁kung	-12.4748
▁chước	-12.4752
jr	-12.4753
hốt	-12.4753
arenc	-12.4754
page	-12.4756
▁sub	-12.477
▁ye	-12.4772
▁wo	-12.4801
▁fil	-12.4803
▁hop	-12.4805
rew	-12.481
hấm	-12.4813
▁hack	-12.4815
ili	-12.4817
onia	-12.4818
fic	-12.4821
▁jen	-12.4827
ee	-12.4828
cự	-12.4832
đặt	-12.484
úa	-12.4841
central	-12.4847
unda	-12.4852
▁arch	-12.4861
▁sp	-12.4867
bởi	-12.487
kinh	-12.4872
edin	-12.4881
▁lin	-12.4883
▁dy	-12.4886
pines	-12.4892
▁per	-12.4893
▁rụ	-12.4898
▁dặ	-12.4912
nỗi	-12.4912
bác	-12.4916
▁kạn	-12.4925
▁manage	-12.4938
▁mende	-12.4944
cos	-12.4962
▁hub	-12.4964
▁base	-12.4972
anda	-12.4976
▁das	-12.4979
ound	-12.4983
mini	-12.5006
borne	-12.501
hút	-12.5014
adis	-12.5022
hain	-12.5028
ản	-12.5032
▁kala	-12.5036
▁deb	-12.5043
▁pay	-12.5044
▁tem	-12.5053
▁đọ	-12.5057
▁gong	-12.5062
anza	-12.5066
ạm	-12.5067
nhìn	-12.5075
sin	-12.5088
▁lisa	-12.5096
omba	-12.5097
đêm	-12.5098
▁gặ	-12.51
▁manga	-12.5106
lee	-12.5108
evel	-12.5113
▁bryan	-12.5114
unges	-12.5115
her	-12.5116
▁ps	-12.5123
cs	-12.5125
erne	-12.5127
môn	-12.5128
▁suphana	-12.5128
▁sar	-12.5133
kol	-12.5134
▁kin	-12.5137
antar	-12.5141
dad	-12.5142
journ	-12.5149
rman	-12.5149
zka	-12.5151
▁queen	-12.5152
▁ljubljan	-12.5153
▁bobochacha	-12.5153
▁buterin	-12.5153
▁carnegie	-12.5153
▁design	-12.5153
▁experience	-12.5153
▁kapilava	-12.5153
▁maralago	-12.5153
▁neuschwanstein	-12.5153
▁nicaragua	-12.5153
▁snapchat	-12.5153
▁triglyceride	-12.5153
▁voucher	-12.5153
▁centcom	-12.5153
▁edmund	-12.5153
▁legend	-12.5153
▁bhtn	-12.5153
▁brunei	-12.5153
▁lorenzo	-12.5153
▁tedesco	-12.5153
▁timothy	-12.5153
▁erdogan	-12.5153
▁andaman	-12.5153
▁deniz	-12.5153
▁yacht	-12.5153
avatar	-12.5154
▁henrique	-12.5154
▁jerry	-12.5154
▁lpga	-12.5155
▁liion	-12.5155
▁davis	-12.5156
▁miller	-12.5156
▁univers	-12.5157
▁bihar	-12.5158
▁athen	-12.5158
index	-12.5158
fram	-12.5159
▁gavi	-12.516
▁brca	-12.5161
tify	-12.5162
▁herzog	-12.5163
▁sidd	-12.5163
tek	-12.5167
▁deep	-12.5167
anathi	-12.5168
▁rượi	-12.517
▁omed	-12.517
▁aero	-12.517
▁six	-12.517
pf	-12.5171
epid	-12.5175
▁zea	-12.5175
ju	-12.5176
▁boj	-12.5179
▁dep	-12.5186
hủ	-12.5186
lic	-12.5187
▁mitch	-12.5187
trở	-12.5188
▁xoá	-12.5189
▁sushi	-12.5191
uýt	-12.5194
concept	-12.5198
▁khé	-12.52
▁sofa	-12.5202
▁hubert	-12.5203
chất	-12.5203
ipa	-12.5204
▁aas	-12.5215
▁dụi	-12.5218
▁hoen	-12.5219
▁luang	-12.5224
▁arms	-12.5225
nguy	-12.5227
▁roberts	-12.5229
nin	-12.523
▁nhuệ	-12.5238
ụ	-12.524
▁lewis	-12.524
▁sergi	-12.5244
▁marian	-12.5247
dễ	-12.5247
▁eag	-12.5248
tấn	-12.5251
view	-12.5254
▁granit	-12.5257
▁pal	-12.5258
tỷ	-12.5258
▁flam	-12.526
▁levin	-12.5263
rahma	-12.5272
▁over	-12.5281
▁nom	-12.5284
teq	-12.5294
▁whis	-12.5296
▁bridge	-12.5299
hacker	-12.5301
chương	-12.5301
ec	-12.5305
▁novo	-12.5306
hia	-12.5309
utem	-12.5309
eche	-12.5325
shop	-12.5328
sor	-12.5334
ize	-12.5337
▁pak	-12.534
▁corne	-12.534
▁nichols	-12.5341
▁tươ	-12.5346
▁oliver	-12.5347
thin	-12.5353
hl	-12.5354
▁bă	-12.5358
▁haniy	-12.5359
uring	-12.5368
▁pedr	-12.537
lâu	-12.5371
chị	-12.5378
▁ngổ	-12.5386
▁mag	-12.5386
▁press	-12.5387
tu	-12.5392
▁tì	-12.5395
▁quạ	-12.5401
▁ole	-12.541
hòn	-12.5412
ives	-12.5416
ota	-12.5423
▁eps	-12.5426
▁siem	-12.5428
▁kent	-12.5432
asser	-12.5437
cci	-12.5441
rung	-12.5452
bin	-12.546
▁xố	-12.5462
đóng	-12.5471
▁alsa	-12.5475
▁saq	-12.5476
thống	-12.5482
▁luc	-12.5483
ora	-12.5485
▁isla	-12.5486
▁flavo	-12.5509
▁prab	-12.5516
▁haw	-12.5535
inda	-12.5536
pp	-12.5542
▁fas	-12.5543
rol	-12.5552
▁lim	-12.5553
ller	-12.5554
giống	-12.5556
▁jc	-12.5558
▁nhả	-12.5558
ựu	-12.5563
ilk	-12.5593
ược	-12.5598
yle	-12.5599
▁ló	-12.5601
limo	-12.5604
kit	-12.5605
els	-12.5606
▁bark	-12.5615
ubu	-12.5627
rông	-12.5627
tốt	-12.5632
ange	-12.5647
▁karta	-12.565
▁naf	-12.5662
cánh	-12.5664
thất	-12.5674
▁pena	-12.5678
ợt	-12.5686
▁vun	-12.569
▁hãn	-12.569
▁usb	-12.5698
thượng	-12.5704
▁gain	-12.5708
▁fort	-12.571
▁hơ	-12.5713
sf	-12.5713
ếm	-12.5718
▁baza	-12.5726
▁cùi	-12.5727
ắm	-12.5728
thích	-12.5728
eel	-12.5734
uno	-12.5736
trại	-12.5746
▁qr	-12.5751
▁ỏi	-12.5755
lf	-12.5758
▁kiê	-12.5781
mạnh	-12.5785
ze	-12.5789
iệp	-12.5793
õi	-12.5796
▁hamp	-12.5803
▁cỏi	-12.5806
lập	-12.5815
▁emil	-12.5816
mani	-12.582
nội	-12.5829
ứt	-12.5837
▁hava	-12.5837
oán	-12.5837
▁ever	-12.5844
apa	-12.5846
ansson	-12.5849
▁buk	-12.5855
ette	-12.5863
oque	-12.5863
fs	-12.5864
star	-12.5875
mes	-12.5881
▁bở	-12.5884
night	-12.5887
▁peck	-12.5888
▁tor	-12.5891
ur	-12.5894
more	-12.5897
▁rả	-12.5898
chứng	-12.5906
▁gb	-12.5908
▁tấ	-12.591
nai	-12.591
xuất	-12.5911
ear	-12.5911
▁morning	-12.5914
chip	-12.592
▁amir	-12.5929
▁think	-12.5931
▁dav	-12.5932
qu	-12.5957
catechin	-12.5964
lý	-12.5967
ẻo	-12.5971
▁dana	-12.5976
▁mú	-12.598
vấn	-12.5981
ão	-12.5987
mối	-12.6
lvin	-12.6008
tai	-12.6013
▁ngốc	-12.6027
▁ina	-12.6028
▁oi	-12.6029
lễ	-12.6034
thái	-12.6036
▁hh	-12.6037
asas	-12.6038
▁kai	-12.604
▁thò	-12.604
lính	-12.6058
fo	-12.6072
òa	-12.6073
▁ốp	-12.6075
▁nhượ	-12.6076
▁bới	-12.6078
▁mer	-12.6079
▁ngớ	-12.6079
▁tặc	-12.6086
▁johan	-12.6087
uổi	-12.6087
kja	-12.6088
nick	-12.6092
diệt	-12.61
▁mei	-12.6105
rati	-12.6111
toàn	-12.6119
add	-12.6131
▁jos	-12.6136
▁jay	-12.6141
ou	-12.6142
virus	-12.6146
ams	-12.6148
tah	-12.6152
ale	-12.617
▁lí	-12.6172
fan	-12.6174
cùng	-12.6186
▁fida	-12.6188
cửa	-12.6199
▁match	-12.62
hot	-12.62
eif	-12.6202
zaku	-12.6202
▁tie	-12.6206
tàu	-12.6208
caroten	-12.621
wab	-12.621
trax	-12.6211
▁te	-12.6213
▁nhữ	-12.6217
water	-12.6217
vùng	-12.6221
▁lipi	-12.6231
▁maur	-12.6237
ano	-12.6242
▁bẹ	-12.6254
▁wit	-12.6258
mala	-12.6262
hiếm	-12.6266
▁alk	-12.627
ger	-12.6271
pin	-12.6272
dự	-12.6276
▁ib	-12.6277
▁andree	-12.6282
varr	-12.6285
rada	-12.629
▁goz	-12.6291
eed	-12.6292
ison	-12.6293
▁cole	-12.6297
law	-12.6303
nhận	-12.6306
▁sel	-12.6314
▁alvar	-12.6316
▁ong	-12.632
gà	-12.6336
walk	-12.6336
burn	-12.6346
fu	-12.6351
ịch	-12.6353
▁bb	-12.6365
asi	-12.6371
ẫu	-12.6377
giáo	-12.638
hòa	-12.6383
▁pad	-12.6384
sara	-12.639
ót	-12.6396
chia	-12.64
arend	-12.6402
liên	-12.6406
row	-12.641
now	-12.6414
stein	-12.6418
inson	-12.6428
ld	-12.6444
men	-12.6451
anxia	-12.6467
▁farm	-12.6469
héo	-12.6473
▁tuô	-12.6476
ivy	-12.6482
ordi	-12.6485
op	-12.6487
▁schm	-12.6496
jun	-12.6501
nia	-12.6504
▁uta	-12.6541
val	-12.6556
islav	-12.6557
blin	-12.6559
▁lươ	-12.656
▁olive	-12.6562
▁kup	-12.6563
ayashi	-12.6568
mas	-12.6569
▁kiể	-12.657
▁muô	-12.6575
▁storm	-12.6575
máy	-12.658
henko	-12.658
mclaren	-12.6582
▁cyprus	-12.6582
▁gmlrs	-12.6582
▁hamilton	-12.6582
▁oleksandr	-12.6582
▁premier	-12.6582
▁scarborough	-12.6582
▁service	-12.6582
▁tuscany	-12.6582
▁vovchansk	-12.6582
▁ortega	-12.6582
▁rashid	-12.6582
▁flycam	-12.6582
▁consult	-12.6582
▁alabama	-12.6582
▁bosnia	-12.6582
▁pradesh	-12.6582
▁torres	-12.6582
▁wilander	-12.6582
▁wolves	-12.6582
▁grigor	-12.6582
▁popov	-12.6582
▁tenzinghillary	-12.6582
▁oceangate	-12.6582
▁caffein	-12.6582
▁perak	-12.6582
▁cotton	-12.6582
▁sumki	-12.6582
▁chubb	-12.6582
▁lukla	-12.6582
▁morris	-12.6582
▁satoshi	-12.6582
▁hifu	-12.6582
▁luckin	-12.6582
▁todd	-12.6582
▁rothen	-12.6583
avc	-12.6583
▁nilon	-12.6583
▁chườm	-12.6584
▁jw	-12.6585
▁mellon	-12.6585
▁auto	-12.6586
▁luxem	-12.6586
▁grady	-12.6586
ươi	-12.6587
▁krish	-12.6587
▁meyer	-12.6587
▁fuji	-12.6588
▁mướp	-12.6589
▁tenzing	-12.6589
▁claus	-12.659
▁bintan	-12.659
▁inve	-12.6591
▁mcc	-12.6591
▁rặn	-12.6592
iev	-12.6595
chuẩn	-12.6596
▁luke	-12.6598
arkit	-12.6598
rage	-12.6603
oomin	-12.6605
▁bueno	-12.6606
▁afc	-12.6606
▁task	-12.6608
▁mobile	-12.6615
umi	-12.6618
▁lister	-12.6619
ũng	-12.6621
min	-12.6627
▁photo	-12.6627
oat	-12.6628
word	-12.6628
aval	-12.6628
omni	-12.6629
roli	-12.6631
▁xót	-12.6632
▁lego	-12.6634
ạnh	-12.6642
▁lè	-12.6651
▁khuynh	-12.6651
▁nitri	-12.6651
aton	-12.6654
won	-12.6655
olivia	-12.6656
▁ashle	-12.6658
▁ips	-12.6659
▁susan	-12.666
dịch	-12.6661
▁cies	-12.6662
pto	-12.6663
uscat	-12.6666
noid	-12.6668
▁albu	-12.6668
kể	-12.6673
tro	-12.6677
ff	-12.6679
gest	-12.668
▁penny	-12.6683
▁harri	-12.6684
ii	-12.6689
thương	-12.669
▁vượn	-12.6695
lời	-12.6696
pu	-12.6696
▁nichola	-12.6698
sapp	-12.67
▁eugen	-12.6703
▁joa	-12.6703
▁norga	-12.6707
▁roi	-12.6708
khoảng	-12.6709
lotte	-12.6712
uick	-12.6714
daq	-12.6714
▁semi	-12.6716
ớn	-12.6721
điện	-12.6721
▁isco	-12.6723
▁balk	-12.6728
▁fior	-12.673
▁phạn	-12.6732
ara	-12.6737
▁giun	-12.6737
ento	-12.6742
▁farms	-12.6742
▁neu	-12.6743
▁iu	-12.6746
▁chắp	-12.6748
isuk	-12.6752
xác	-12.6754
▁dâ	-12.6756
hộp	-12.6759
lên	-12.676
ihanoukvill	-12.6761
▁lị	-12.6763
▁linco	-12.6764
ego	-12.6766
enzo	-12.6769
trọng	-12.6771
▁phồn	-12.6775
lá	-12.6777
▁eg	-12.6778
▁anders	-12.678
▁box	-12.6787
race	-12.6788
llmer	-12.6789
▁row	-12.6789
insk	-12.6791
▁uk	-12.6812
▁vón	-12.6812
▁rot	-12.6813
ặm	-12.6816
▁male	-12.6818
buổi	-12.6821
▁sur	-12.6821
▁krasno	-12.6825
leana	-12.6826
aka	-12.683
anaka	-12.683
tail	-12.6833
▁ạt	-12.6838
ợp	-12.6842
▁dw	-12.6847
▁khốn	-12.6847
▁dả	-12.6853
▁have	-12.6853
▁wus	-12.6856
▁mito	-12.6865
sashi	-12.6873
hier	-12.6874
▁kao	-12.6874
ast	-12.6875
▁stand	-12.6879
▁carl	-12.688
▁nhạo	-12.6883
chống	-12.6884
▁cast	-12.6889
▁col	-12.689
▁cõ	-12.6899
▁appli	-12.69
nov	-12.6904
ssis	-12.6908
càng	-12.6909
▁para	-12.6914
morsk	-12.6921
▁sex	-12.6927
▁henr	-12.6928
elvi	-12.6935
▁gáp	-12.6937
ayne	-12.6938
otp	-12.6939
edes	-12.6942
▁lượm	-12.6965
iễn	-12.6967
▁caroten	-12.697
cm	-12.6975
ạy	-12.6975
enny	-12.6976
ninja	-12.6996
▁rod	-12.6999
ndra	-12.7001
▁fei	-12.7003
onbas	-12.7022
vez	-12.7031
▁bụ	-12.7031
rút	-12.7032
amb	-12.7034
àm	-12.7036
▁jess	-12.7038
▁nao	-12.7043
fil	-12.7061
▁hot	-12.7062
▁tủi	-12.7063
nacio	-12.7064
dùng	-12.7066
dda	-12.7066
▁avi	-12.7067
dòng	-12.7077
▁dj	-12.7082
ruz	-12.7094
aisle	-12.71
kg	-12.7104
iley	-12.7105
▁ren	-12.7114
ress	-12.714
erez	-12.7144
eri	-12.7149
▁cừ	-12.715
▁il	-12.7154
ude	-12.7158
don	-12.7165
▁ob	-12.717
esper	-12.717
▁fli	-12.7178
▁shir	-12.7184
cuối	-12.7187
▁bowe	-12.7213
▁ya	-12.7216
▁mala	-12.723
▁đả	-12.723
▁ratc	-12.7238
▁reh	-12.7238
oc	-12.7239
aray	-12.7241
▁grea	-12.7243
▁vàn	-12.7248
▁broadc	-12.725
dân	-12.7256
▁rich	-12.7266
ibel	-12.7266
ửa	-12.7271
▁basi	-12.7279
▁nin	-12.7282
▁jami	-12.7284
obra	-12.7286
can	-12.7288
▁her	-12.7289
verse	-12.7291
▁pes	-12.7294
▁then	-12.7299
▁đấ	-12.7307
gd	-12.7309
▁tịt	-12.7313
▁jae	-12.732
ộ	-12.7328
▁lừ	-12.7332
abal	-12.7345
▁hum	-12.7354
▁nhỉ	-12.7354
▁fl	-12.7356
hat	-12.7362
ita	-12.7363
ari	-12.7365
▁ngán	-12.7365
nal	-12.7365
iện	-12.7367
triệu	-12.7368
aesa	-12.7373
▁chern	-12.7376
▁nhan	-12.7382
sân	-12.7391
ishn	-12.7399
phán	-12.7411
▁bog	-12.7414
atri	-12.7418
▁kata	-12.7424
▁gill	-12.7439
rước	-12.7439
aj	-12.7447
▁willi	-12.745
ama	-12.7451
lay	-12.7457
aires	-12.7457
rker	-12.7461
tống	-12.7461
▁johann	-12.7464
▁ag	-12.7469
hăm	-12.7475
▁bổn	-12.7479
hoặc	-12.7488
itori	-12.7502
▁reg	-12.7502
giấc	-12.7503
▁os	-12.751
nut	-12.7512
▁pam	-12.752
apo	-12.753
chung	-12.7534
vịnh	-12.7534
▁way	-12.7534
agen	-12.7538
phục	-12.7542
đoàn	-12.7546
▁mãnh	-12.7548
hập	-12.7549
▁guy	-12.756
team	-12.757
▁choline	-12.7573
tổ	-12.7586
▁jur	-12.7589
▁chịt	-12.7591
▁amira	-12.7594
ark	-12.7603
tạo	-12.7606
▁mal	-12.7616
vii	-12.7619
ớm	-12.7622
oby	-12.7628
▁vế	-12.7635
nda	-12.7636
ịn	-12.7644
ênh	-12.7645
nburg	-12.7651
cker	-12.7658
▁jacob	-12.766
▁nhâ	-12.7668
▁gọt	-12.7669
njee	-12.7678
olde	-12.7691
▁cườ	-12.7698
thôi	-12.77
thánh	-12.7706
bây	-12.771
ều	-12.7717
xóa	-12.7719
jo	-12.7727
oli	-12.7731
rix	-12.7736
viet	-12.7742
▁bed	-12.7744
háng	-12.7746
rton	-12.7749
ensio	-12.775
▁ama	-12.7751
hãng	-12.7758
laya	-12.7759
ennai	-12.776
bóng	-12.7764
zen	-12.7766
side	-12.777
daniel	-12.7772
▁rá	-12.7773
age	-12.7778
yen	-12.7778
▁wich	-12.7779
beau	-12.7779
độ	-12.7782
kíp	-12.7786
thanh	-12.7787
woo	-12.7792
▁rag	-12.7794
zo	-12.7799
rado	-12.78
bitz	-12.7813
ndho	-12.7824
▁chẻ	-12.7828
carlo	-12.7839
ặt	-12.7842
▁ze	-12.7848
▁shan	-12.7851
▁taka	-12.7852
ody	-12.7862
▁rodrig	-12.7862
vậy	-12.7864
fly	-12.7866
wee	-12.7869
▁tấy	-12.7874
cởi	-12.7882
nổi	-12.7882
whit	-12.7886
yên	-12.7886
cung	-12.7893
▁uz	-12.7906
vid	-12.7912
ghost	-12.7921
ữ	-12.7922
oled	-12.793
▁ver	-12.7934
uma	-12.7936
nsen	-12.7937
▁io	-12.7941
▁mitro	-12.7942
face	-12.7944
sốt	-12.7945
▁khiế	-12.7955
▁chử	-12.7958
bell	-12.7962
▁nhác	-12.7972
oper	-12.7975
ence	-12.7975
▁chớ	-12.7977
flat	-12.7978
cill	-12.7981
▁fue	-12.7986
fb	-12.7989
ĩnh	-12.7999
ado	-12.8009
ẹo	-12.8014
rê	-12.8019
▁ym	-12.8024
▁xáng	-12.8036
▁flan	-12.8038
fast	-12.8038
sip	-12.8042
▁rube	-12.8043
yot	-12.805
▁há	-12.8052
▁bina	-12.8053
meni	-12.8063
khả	-12.8069
▁pú	-12.8075
ngoại	-12.8077
hcmc	-12.8078
iis	-12.8096
orf	-12.8098
▁rem	-12.8106
▁cuộ	-12.8107
sc	-12.8118
▁jet	-12.8121
▁michel	-12.8126
▁bra	-12.813
ụp	-12.8137
xx	-12.8137
hara	-12.814
▁lance	-12.8154
▁ẩu	-12.8157
tony	-12.8161
▁eb	-12.8162
hời	-12.8165
▁đốn	-12.8171
ira	-12.8172
adv	-12.8176
stone	-12.819
giữ	-12.8191
▁ruộ	-12.8193
polo	-12.82
gục	-12.8202
buka	-12.8207
quán	-12.8208
▁só	-12.8212
bek	-12.8214
▁dền	-12.8215
bal	-12.8215
bib	-12.823
▁caff	-12.8232
mon	-12.8232
show	-12.8235
▁mă	-12.824
▁thươ	-12.8244
time	-12.8244
▁snap	-12.8245
ernst	-12.8246
▁ferdinan	-12.8247
▁jah	-12.8247
ashil	-12.8248
tâm	-12.8248
▁voronezh	-12.8248
▁airpods	-12.8248
▁augeraliassime	-12.8248
▁cacbon	-12.8248
▁chromium	-12.8248
▁connolly	-12.8248
▁cuniac	-12.8248
▁dnieper	-12.8248
▁dnipro	-12.8248
▁erhart	-12.8248
▁glycol	-12.8248
▁madagascar	-12.8248
▁marselino	-12.8248
▁midjourney	-12.8248
▁mohammed	-12.8248
▁paralympic	-12.8248
▁phthalate	-12.8248
▁polynesia	-12.8248
▁sapphire	-12.8248
▁scarlett	-12.8248
▁silvies	-12.8248
▁zaireemery	-12.8248
vostok	-12.8248
▁montmartre	-12.8248
▁mykhail	-12.8248
▁raphael	-12.8248
▁segovia	-12.8248
tezeich	-12.8248
▁agoda	-12.8248
▁brewster	-12.8248
▁learning	-12.8248
szcz	-12.8248
▁foundry	-12.8248
▁botox	-12.8248
▁woodcock	-12.8248
▁olaf	-12.8248
▁ittihad	-12.8248
▁vuitton	-12.8248
▁nutri	-12.8248
▁senkaku	-12.8249
▁ventures	-12.8249
▁cedric	-12.8249
▁ibrahim	-12.8249
▁algeri	-12.8249
▁foodtour	-12.8249
analys	-12.8249
▁warner	-12.8249
▁lidar	-12.8249
▁hiroshi	-12.8249
▁rizal	-12.8249
▁gross	-12.8249
▁viettel	-12.8249
▁marcus	-12.825
▁holoc	-12.825
▁macaren	-12.825
▁ganesh	-12.825
▁ipl	-12.8251
▁honshu	-12.8251
▁union	-12.8251
fried	-12.8252
▁levy	-12.8252
▁socola	-12.8252
▁gyeong	-12.8252
▁merck	-12.8253
▁jackson	-12.8253
▁goncal	-12.8253
bbit	-12.8254
▁ngoèo	-12.8254
▁connor	-12.8256
▁hydro	-12.8257
▁normand	-12.8259
egovi	-12.826
▁inside	-12.8261
▁bharat	-12.8261
▁mendy	-12.8261
entina	-12.8261
▁mizu	-12.8263
▁ratcha	-12.8264
▁baby	-12.8265
▁ngọk	-12.8265
▁xiaomi	-12.8266
zon	-12.8266
▁laurent	-12.8267
▁jasmin	-12.8267
▁jeon	-12.8267
▁mera	-12.8268
▁solution	-12.827
flavi	-12.827
▁khịa	-12.8271
▁rẩy	-12.8271
▁coca	-12.8272
▁zhukov	-12.8272
aving	-12.8273
▁aaa	-12.8274
▁chuck	-12.8275
▁nikla	-12.8277
▁awal	-12.8277
gge	-12.8278
▁wonder	-12.828
▁parade	-12.8281
▁jica	-12.8284
▁qing	-12.8284
▁vcb	-12.8287
▁amora	-12.8288
▁ww	-12.8288
▁owen	-12.8289
▁luna	-12.8291
▁cọp	-12.8292
▁fro	-12.8292
chev	-12.8294
▁réo	-12.8296
▁hoj	-12.8296
uges	-12.8298
▁viii	-12.8299
▁hague	-12.8299
▁upper	-12.8301
eur	-12.8303
▁citri	-12.8304
▁mercedes	-12.8308
▁make	-12.8309
▁erin	-12.8309
▁marib	-12.8315
iêng	-12.8318
▁fta	-12.832
zew	-12.832
ous	-12.8323
▁church	-12.8325
onnell	-12.8325
▁phenol	-12.8326
đứng	-12.833
▁clair	-12.8331
▁trini	-12.8333
nhiệm	-12.8337
▁hodg	-12.8337
boss	-12.8338
khỏe	-12.8339
▁carva	-12.8341
▁gram	-12.8341
▁eq	-12.8342
▁bẩy	-12.8342
unets	-12.8344
▁mines	-12.8346
▁hua	-12.8347
▁núm	-12.8351
▁nsc	-12.8353
eans	-12.8353
khiến	-12.8354
hoảng	-12.8357
rdo	-12.8358
▁cinqu	-12.8358
▁pali	-12.836
esh	-12.8361
▁gạc	-12.8361
▁pau	-12.8365
▁success	-12.8367
▁gre	-12.837
▁will	-12.837
▁cảo	-12.8374
kai	-12.8378
▁nav	-12.8378
▁nation	-12.8379
audi	-12.838
eze	-12.838
market	-12.8382
▁like	-12.8382
▁lambert	-12.8383
▁indian	-12.8384
gie	-12.8384
ukova	-12.8387
▁zu	-12.8398
▁nhún	-12.8399
▁vnd	-12.8404
▁hươ	-12.8404
lamy	-12.841
khám	-12.8413
▁utta	-12.8417
▁sc	-12.8421
▁hala	-12.8421
ender	-12.8422
hối	-12.8423
phù	-12.8425
▁matt	-12.8425
ml	-12.8426
▁vỉ	-12.8428
▁natali	-12.8432
▁step	-12.8436
▁taco	-12.8439
▁fla	-12.8439
eigh	-12.8442
ei	-12.8443
▁safa	-12.8444
rom	-12.8444
giết	-12.8447
▁kỉnh	-12.845
▁ghề	-12.8455
▁bram	-12.8456
▁plan	-12.846
giảm	-12.8461
iana	-12.8462
mee	-12.8464
▁abba	-12.8469
▁rica	-12.8471
lin	-12.8471
▁poly	-12.8473
ambor	-12.8478
ski	-12.848
▁gri	-12.8482
▁cross	-12.8483
wor	-12.8488
our	-12.849
▁emer	-12.8494
▁guerr	-12.8495
▁khỏ	-12.8496
cation	-12.8498
ida	-12.8503
▁riz	-12.8506
▁tele	-12.8507
kwon	-12.8513
▁ves	-12.8513
ks	-12.8515
▁cambria	-12.8517
qg	-12.8521
lịch	-12.8535
▁talk	-12.8547
▁taur	-12.8554
ick	-12.8554
▁mela	-12.8566
agara	-12.8567
aomi	-12.8569
ident	-12.8572
angor	-12.8573
▁factor	-12.8576
reamer	-12.8579
▁must	-12.8589
chăm	-12.859
ùi	-12.8605
▁balo	-12.8608
jer	-12.861
▁aby	-12.8613
iếp	-12.8614
masa	-12.8616
kéo	-12.8617
unpo	-12.8624
jib	-12.8626
▁gent	-12.8628
▁pit	-12.8629
▁buri	-12.863
iya	-12.8633
xuyên	-12.8639
rina	-12.8643
▁stephens	-12.8647
▁or	-12.8649
▁acb	-12.8656
ệp	-12.8678
rau	-12.8679
▁bos	-12.869
▁pris	-12.8697
▁toái	-12.8699
iốt	-12.8699
arta	-12.87
▁poll	-12.87
net	-12.8702
iany	-12.8702
llis	-12.8705
rista	-12.8706
anyan	-12.8717
▁don	-12.8724
▁allian	-12.8728
▁tào	-12.8733
ffen	-12.8737
fl	-12.8747
alamma	-12.8747
▁kiệ	-12.8747
▁soci	-12.8748
báo	-12.8748
▁bogo	-12.8752
đột	-12.8759
uzan	-12.8766
andre	-12.8766
én	-12.8766
▁ant	-12.8767
ssi	-12.877
rey	-12.8773
equila	-12.8776
hae	-12.8785
▁soft	-12.879
thúc	-12.8792
vốn	-12.88
▁mun	-12.8815
zhe	-12.8817
▁roc	-12.8826
emu	-12.8827
▁mas	-12.8831
hiệu	-12.8834
▁vil	-12.8834
▁china	-12.8835
▁trói	-12.8838
▁carr	-12.884
▁châ	-12.8845
artner	-12.8847
▁champag	-12.885
▁touris	-12.8853
hổ	-12.8856
usion	-12.8859
▁negro	-12.886
ument	-12.886
▁rea	-12.8867
work	-12.8878
mey	-12.8878
▁abb	-12.8886
vance	-12.8888
kiến	-12.8896
japa	-12.8899
▁thoang	-12.8902
nik	-12.8903
ihad	-12.8904
ub	-12.8914
▁thít	-12.8918
▁prop	-12.892
kayo	-12.8928
▁nhẩm	-12.8929
rming	-12.8929
lodge	-12.893
iếc	-12.8938
▁buh	-12.8945
▁bur	-12.8948
vui	-12.895
▁fr	-12.8951
▁bens	-12.8955
usd	-12.8957
▁pop	-12.8958
▁nhs	-12.8959
▁remo	-12.896
▁kaha	-12.896
▁khấn	-12.8961
bấy	-12.8965
huyền	-12.8969
dhya	-12.8973
tuyệt	-12.8975
thiết	-12.8986
▁gina	-12.8989
▁ngóng	-12.9005
rea	-12.9007
▁axi	-12.9007
▁glor	-12.9011
iền	-12.9011
▁gore	-12.9012
rya	-12.9046
▁som	-12.9051
mich	-12.9058
▁sta	-12.9062
stream	-12.907
essen	-12.9087
hư	-12.9092
okee	-12.9094
▁ode	-12.9094
bắt	-12.9096
▁bre	-12.9097
nner	-12.9097
▁jer	-12.9098
nguyên	-12.9099
tier	-12.9099
▁ic	-12.9099
xo	-12.9105
ois	-12.9105
▁thêu	-12.9107
đỉnh	-12.9109
shakht	-12.9116
▁lán	-12.9116
all	-12.9118
▁hit	-12.912
giấy	-12.9121
▁thồ	-12.9126
rw	-12.9138
feld	-12.9157
sten	-12.916
chợ	-12.9176
sư	-12.9177
ymar	-12.9182
suy	-12.9191
ata	-12.9195
▁sl	-12.9195
hán	-12.9204
oyar	-12.9218
eva	-12.9226
ooking	-12.9228
▁wed	-12.9242
ent	-12.9243
▁fri	-12.9253
tas	-12.9257
chiếm	-12.9257
miếng	-12.926
rùng	-12.9263
danh	-12.9264
ace	-12.9272
erro	-12.9274
mặc	-12.9276
llah	-12.9277
oji	-12.9278
hỗ	-12.9278
▁yế	-12.9281
lho	-12.9281
▁gio	-12.9288
kv	-12.929
▁ara	-12.9292
▁nhẹm	-12.9297
ebu	-12.9297
▁phẫ	-12.9312
rẻ	-12.9313
▁prov	-12.9316
▁color	-12.9319
đổ	-12.9324
hiều	-12.9325
eran	-12.9326
key	-12.9328
▁alma	-12.9329
▁tran	-12.9336
tới	-12.9342
rily	-12.9342
▁nor	-12.9344
▁pur	-12.9344
ensen	-12.9345
▁kang	-12.9349
kim	-12.9351
zz	-12.9353
ssard	-12.9365
math	-12.937
▁lứ	-12.9377
mbappe	-12.9382
inal	-12.9386
▁syn	-12.939
▁der	-12.939
yaki	-12.9398
dựa	-12.9402
lov	-12.9406
thỏa	-12.9408
see	-12.9415
▁yi	-12.9415
dung	-12.9417
uột	-12.942
▁cav	-12.9423
yama	-12.9428
rake	-12.9446
bé	-12.9456
hô	-12.9463
▁akash	-12.9465
đổi	-12.9467
▁bri	-12.9474
ono	-12.9475
▁blan	-12.9485
tạm	-12.9492
▁cv	-12.9494
răng	-12.9504
epto	-12.9507
ngược	-12.9507
pan	-12.9509
ngọc	-12.951
metaverse	-12.9514
tri	-12.952
mu	-12.9525
hiêu	-12.9543
ward	-12.9544
▁gru	-12.9544
▁berg	-12.9551
vết	-12.9552
▁trạ	-12.9565
than	-12.958
▁jad	-12.9586
lette	-12.9591
tse	-12.9594
sana	-12.9614
khán	-12.962
tcl	-12.9625
▁ngoá	-12.9625
hững	-12.9629
bezos	-12.964
▁une	-12.964
lock	-12.9648
▁mend	-12.9649
rack	-12.9662
nadal	-12.9664
mind	-12.9667
xu	-12.9677
nier	-12.9678
thấy	-12.9679
ppo	-12.9681
ovo	-12.9681
đòn	-12.9683
châu	-12.9687
:"	-12.9695
watt	-12.9699
▁vie	-12.97
ase	-12.9704
lùi	-12.9706
ones	-12.9726
ựng	-12.9727
cons	-12.9728
▁yan	-12.9729
▁dưng	-12.9731
vr	-12.9735
▁ed	-12.9742
lack	-12.9744
athpt	-12.9748
gã	-12.9751
▁kr	-12.9765
mb	-12.9772
ửng	-12.9784
▁hđ	-12.9787
agon	-12.9789
lace	-12.9789
hằng	-12.9789
check	-12.9793
port	-12.9797
▁jon	-12.9803
cl	-12.9805
captcha	-12.9815
hũ	-12.9816
▁chă	-12.9825
ding	-12.9827
điếu	-12.9831
ito	-12.9833
▁ger	-12.9843
ansas	-12.9845
▁zh	-12.985
ỉa	-12.9854
cano	-12.986
vpf	-12.9861
yes	-12.9864
loại	-12.9867
chìa	-12.9867
factor	-12.9868
umer	-12.9872
▁charl	-12.9878
▁tòi	-12.9882
space	-12.9891
▁rí	-12.9895
ancer	-12.9895
may	-12.9902
▁kos	-12.991
vu	-12.9914
▁mil	-12.9919
đoạn	-12.9922
▁ais	-12.993
hách	-12.9932
uchi	-12.9948
cr	-12.9957
xia	-12.996
▁lợ	-12.9961
sol	-12.9977
▁squa	-12.9983
yard	-12.9985
odie	-12.999
rock	-12.9999
▁ươi	-13.0008
phía	-13.001
rầm	-13.0011
▁fin	-13.0011
▁hạc	-13.0021
eos	-13.0023
▁fee	-13.0024
▁zhe	-13.0027
pol	-13.0029
tên	-13.0042
▁all	-13.0044
▁điề	-13.0045
nhập	-13.0047
▁cent	-13.0053
izu	-13.0055
▁đút	-13.0057
pping	-13.0059
▁trồ	-13.0066
ucci	-13.007
aki	-13.0073
▁brad	-13.0078
egan	-13.0085
ssel	-13.0095
cổ	-13.0097
▁diệ	-13.0098
▁ott	-13.0104
shar	-13.0112
hiếu	-13.0113
▁thụt	-13.0113
oys	-13.0113
chan	-13.0117
kích	-13.0118
league	-13.0123
onse	-13.0127
huy	-13.0129
end	-13.013
▁intr	-13.0133
sz	-13.0141
gang	-13.0143
▁bula	-13.0146
▁coll	-13.0154
ret	-13.0163
hio	-13.0163
tượng	-13.0164
iếm	-13.0173
nhóm	-13.0175
▁malac	-13.0182
▁nu	-13.0184
▁petr	-13.0197
▁olli	-13.0212
▁fair	-13.0216
aust	-13.0221
ện	-13.0223
rbar	-13.0223
▁maz	-13.0225
▁hassa	-13.0226
▁cali	-13.0226
liza	-13.0229
▁osa	-13.0229
▁lava	-13.023
▁billiard	-13.0241
luôn	-13.0243
ympho	-13.0246
hammad	-13.0248
▁oratma	-13.0248
▁piastri	-13.0248
▁bologna	-13.0248
▁bucharest	-13.0248
▁deboodt	-13.0248
▁fowleri	-13.0248
▁futsal	-13.0248
▁gerstner	-13.0248
▁luxury	-13.0248
▁mcnamara	-13.0248
▁pattynama	-13.0248
▁quebec	-13.0248
▁redknapp	-13.0248
▁sambodromo	-13.0248
▁scholarship	-13.0248
▁spetsnaz	-13.0248
▁stupak	-13.0248
▁antoine	-13.0248
▁grutas	-13.0248
▁mohamed	-13.0248
▁mundus	-13.0248
▁sleep	-13.0248
▁eilat	-13.0248
▁intelligence	-13.0248
▁dambri	-13.0248
▁frankenstein	-13.0248
▁halsey	-13.0248
▁pasteur	-13.0248
▁oxit	-13.0248
▁taekw	-13.0248
▁rostov	-13.0248
▁boots	-13.0248
▁stable	-13.0248
▁franz	-13.0248
▁vepr	-13.0248
▁vogt	-13.0248
▁douyin	-13.0248
▁thuringia	-13.0248
▁mccart	-13.0248
▁norris	-13.0249
▁sparta	-13.0249
▁bermin	-13.0249
▁mohammad	-13.0249
phabe	-13.0249
▁frame	-13.0249
▁liguria	-13.0249
▁shopping	-13.0249
▁macaron	-13.0249
▁sporting	-13.0249
elsin	-13.0249
▁rupee	-13.0249
▁curie	-13.0249
▁rudolf	-13.0249
▁jules	-13.0249
▁invest	-13.0249
▁mcdonald	-13.0249
▁pilat	-13.0249
▁paradis	-13.025
▁destin	-13.025
▁maksim	-13.025
▁songkra	-13.025
▁zune	-13.0251
▁mĩm	-13.0251
▁galactic	-13.0251
▁curio	-13.0251
neill	-13.0251
▁kumar	-13.0251
▁plank	-13.0251
▁swain	-13.0252
▁pacer	-13.0252
▁sintra	-13.0252
▁marse	-13.0253
▁nhẽo	-13.0253
ancelo	-13.0253
▁athletics	-13.0253
▁abbe	-13.0253
▁wells	-13.0254
▁future	-13.0255
▁kcal	-13.0255
terdam	-13.0256
▁rlm	-13.0256
▁giùm	-13.0257
▁puna	-13.0258
▁hiwatari	-13.0258
▁wolfe	-13.0259
▁cuô	-13.026
▁rixo	-13.026
▁brandt	-13.0261
▁jasper	-13.0263
▁moọc	-13.0264
▁rudi	-13.0264
▁vladi	-13.0268
oming	-13.0269
▁đẫy	-13.027
▁cairo	-13.0271
ddin	-13.0274
▁diabl	-13.0274
leria	-13.0274
▁spie	-13.0278
km	-13.0281
▁giovann	-13.0282
▁gh	-13.0283
kul	-13.0284
▁trend	-13.0285
▁magic	-13.0285
coi	-13.0285
▁rướn	-13.0286
▁herz	-13.0286
▁vlogger	-13.0289
▁mile	-13.029
hầm	-13.029
▁lact	-13.0292
style	-13.0292
▁noong	-13.0293
rừng	-13.0296
▁hend	-13.0298
▁ethan	-13.0299
uggle	-13.0301
wagen	-13.0302
▁koro	-13.0306
▁human	-13.0307
▁harmony	-13.0307
▁halim	-13.0309
▁joachim	-13.0309
▁churrasc	-13.0309
▁even	-13.0313
enco	-13.0315
▁myung	-13.0316
▁mcg	-13.0318
ted	-13.0319
▁lủi	-13.0319
hau	-13.032
ating	-13.032
▁zee	-13.0321
▁gramm	-13.0324
tali	-13.0325
rating	-13.0326
▁manas	-13.0327
▁sapa	-13.0329
tung	-13.0331
kings	-13.0332
▁borrel	-13.0333
▁seren	-13.0333
israel	-13.0337
▁jetp	-13.0341
▁georgi	-13.0341
▁lea	-13.0342
▁bei	-13.0345
fab	-13.0347
cross	-13.0348
▁hẹ	-13.0351
▁sín	-13.0352
▁sese	-13.0357
▁takashi	-13.036
▁altha	-13.036
buri	-13.0361
▁thót	-13.0362
kids	-13.0362
▁rôm	-13.0365
aree	-13.0369
tx	-13.0372
▁mobi	-13.0377
đa	-13.0381
tany	-13.0382
▁granad	-13.0383
▁vive	-13.0383
▁liv	-13.0386
▁kền	-13.0389
▁married	-13.0393
abin	-13.0397
▁front	-13.0398
petit	-13.0402
gill	-13.0403
▁shaw	-13.0413
▁nikk	-13.0413
roo	-13.0415
ral	-13.0418
▁megha	-13.0421
laza	-13.0421
ulia	-13.0428
▁joy	-13.0429
aldo	-13.0431
edt	-13.0438
▁iot	-13.0441
ghur	-13.0443
lima	-13.0447
asso	-13.0447
▁adh	-13.0448
▁bradle	-13.0453
nial	-13.0454
▁moon	-13.0461
ord	-13.0464
▁ring	-13.0465
tec	-13.047
▁main	-13.047
▁rám	-13.0471
▁sap	-13.0477
▁aqua	-13.0479
ritsa	-13.0481
▁linga	-13.0487
ulla	-13.0487
▁fabi	-13.0489
▁more	-13.0493
▁ceto	-13.0494
▁mallo	-13.0496
▁eth	-13.0496
ebas	-13.0497
▁rịch	-13.0503
eble	-13.0504
iffer	-13.0507
▁azur	-13.0508
▁nur	-13.0515
ichi	-13.0516
ene	-13.0517
▁sophi	-13.052
▁máng	-13.0521
▁asco	-13.0531
▁tian	-13.0534
donald	-13.0553
▁camero	-13.0553
▁boul	-13.0554
▁dick	-13.0555
ngbo	-13.0563
▁moor	-13.0566
andor	-13.0575
▁dex	-13.0577
kawag	-13.0583
▁cul	-13.0595
ev	-13.0598
cky	-13.0599
tí	-13.0607
▁lip	-13.0608
▁outbo	-13.061
ome	-13.0612
enau	-13.0615
▁kỉ	-13.0615
rozo	-13.0621
▁space	-13.0623
sd	-13.0624
sed	-13.0632
▁glam	-13.0639
pot	-13.0642
▁curr	-13.0642
bịt	-13.0645
▁yard	-13.0646
▁glad	-13.0649
anju	-13.0652
thức	-13.0652
▁por	-13.0654
ấc	-13.0655
kedi	-13.0657
▁nơ	-13.0659
▁nhơ	-13.0661
▁nhó	-13.0665
▁ghost	-13.0666
west	-13.0667
kii	-13.0675
▁liếng	-13.0683
▁acha	-13.0686
legg	-13.0695
oát	-13.0695
bó	-13.0698
ishi	-13.0702
ep	-13.0704
oye	-13.0706
oan	-13.0708
▁gol	-13.0709
▁muir	-13.071
▁alv	-13.0713
donna	-13.0716
aragon	-13.0718
▁philip	-13.0719
▁whit	-13.072
▁ridge	-13.0726
mura	-13.0728
heese	-13.073
▁algar	-13.073
ckland	-13.073
ddi	-13.0736
ahn	-13.0739
▁fe	-13.0739
xa	-13.075
tien	-13.0757
trầy	-13.0766
▁nhảm	-13.0772
▁fial	-13.0777
▁traveler	-13.0779
▁sime	-13.0786
heim	-13.0793
ốm	-13.0795
sớm	-13.0803
▁beh	-13.0813
oko	-13.0815
axo	-13.083
▁schip	-13.0832
chuyển	-13.0832
trình	-13.0837
▁sri	-13.0842
npt	-13.0851
▁late	-13.0855
▁guardi	-13.0861
vcc	-13.0871
napa	-13.0874
lớn	-13.0884
szyn	-13.0884
▁lena	-13.0889
▁jessi	-13.0891
eira	-13.0893
▁gall	-13.0899
brie	-13.0907
đôi	-13.0908
tuyên	-13.0913
▁jp	-13.0916
ocha	-13.0925
sawa	-13.0925
▁rết	-13.0935
ato	-13.0936
▁cliff	-13.0939
chí	-13.0942
lles	-13.0943
eth	-13.0946
ười	-13.0949
cola	-13.0961
lòng	-13.0964
eyen	-13.0967
▁matil	-13.0968
▁hz	-13.0969
▁some	-13.0969
kart	-13.0969
▁pref	-13.0971
▁rya	-13.0975
troy	-13.0977
▁kor	-13.0985
demo	-13.0989
lip	-13.0989
▁catal	-13.0995
yển	-13.0998
hop	-13.1005
▁infini	-13.1006
sino	-13.1006
▁holi	-13.1008
ẻ	-13.1016
▁elk	-13.1017
mbledo	-13.1021
trang	-13.1024
▁sala	-13.1025
unge	-13.1029
urz	-13.103
tiểu	-13.1035
▁ấu	-13.1036
▁tơ	-13.1037
lim	-13.1038
ilton	-13.1046
▁pala	-13.105
rối	-13.1051
liu	-13.1056
uzz	-13.1057
mẹo	-13.1063
oeni	-13.1063
▁fir	-13.1064
▁hatt	-13.1071
▁julie	-13.1079
▁vaj	-13.1085
▁edw	-13.1087
hỉ	-13.1093
ash	-13.1107
eine	-13.1109
▁gou	-13.1115
úm	-13.1121
iker	-13.1126
▁mesha	-13.1135
adb	-13.1138
▁saga	-13.1138
atv	-13.114
ds	-13.1149
▁op	-13.1151
rd	-13.1151
từng	-13.1156
taro	-13.1164
▁blanch	-13.1174
ert	-13.1182
giai	-13.1186
ten	-13.1196
yer	-13.1199
▁bulles	-13.12
aly	-13.1201
allas	-13.1204
▁lanta	-13.1205
rình	-13.1207
yến	-13.1208
▁anne	-13.1214
thuế	-13.1218
▁dra	-13.1227
tes	-13.123
▁sq	-13.124
cher	-13.1241
▁ota	-13.1245
rails	-13.125
▁alra	-13.1259
▁suông	-13.126
eller	-13.1264
abre	-13.1271
shir	-13.1273
world	-13.1275
angle	-13.1283
ij	-13.1288
iển	-13.1288
veni	-13.129
verton	-13.1304
ps	-13.1315
lựa	-13.1315
chase	-13.1316
▁titani	-13.134
thar	-13.1345
lla	-13.135
tw	-13.1354
sing	-13.1367
▁archi	-13.1373
▁ngậ	-13.1379
▁field	-13.1381
mc	-13.1388
▁kl	-13.1396
dar	-13.1407
▁stall	-13.141
▁nap	-13.1416
thắng	-13.142
ense	-13.142
▁metz	-13.1424
▁rus	-13.1427
cut	-13.143
tích	-13.1436
▁lọng	-13.1449
▁kir	-13.145
bled	-13.1451
nar	-13.1455
▁dies	-13.1456
▁xê	-13.1481
nghiêm	-13.1483
hích	-13.1488
imer	-13.1489
oang	-13.1491
omo	-13.1491
▁sil	-13.1491
ẽ	-13.1492
lose	-13.1495
dra	-13.1495
cade	-13.15
imite	-13.1501
▁hông	-13.1503
met	-13.1513
ntain	-13.1519
sher	-13.152
earl	-13.152
đều	-13.1522
húc	-13.1529
lệnh	-13.1535
kins	-13.1539
hv	-13.1541
▁dr	-13.1547
anya	-13.1549
bữa	-13.155
aba	-13.1552
hửng	-13.1555
alz	-13.1556
cấm	-13.1559
che	-13.1572
aston	-13.1573
▁adi	-13.1578
chẳng	-13.158
▁nê	-13.1583
▁hill	-13.1586
unin	-13.1594
▁nare	-13.1599
rồi	-13.1602
ứ	-13.1617
ắng	-13.1618
▁kan	-13.1628
eg	-13.163
trao	-13.163
hamas	-13.1637
tzger	-13.1638
▁elia	-13.1646
aro	-13.1651
▁lib	-13.1659
nhớ	-13.1663
▁ter	-13.1668
▁cow	-13.1669
▁ms	-13.1672
▁schr	-13.1673
▁pas	-13.1675
▁riê	-13.1675
▁mick	-13.1675
gris	-13.1678
▁ou	-13.1679
▁dong	-13.168
canada	-13.1686
ient	-13.1687
rượt	-13.1694
ewell	-13.1698
ek	-13.1699
bí	-13.1704
bồi	-13.1708
đạn	-13.1726
▁nghẹ	-13.1728
▁viê	-13.1731
▁salm	-13.1736
ero	-13.1738
nt	-13.1739
deck	-13.174
▁guille	-13.1744
▁nướ	-13.1749
internet	-13.1751
yuca	-13.1756
▁nyl	-13.1757
chọn	-13.1761
ortal	-13.1762
wick	-13.1766
ika	-13.1767
▁marci	-13.1772
▁uncl	-13.1772
▁garc	-13.1774
nv	-13.1774
alk	-13.1778
▁yun	-13.1782
▁fid	-13.1785
oxin	-13.1787
▁lả	-13.1788
ngan	-13.179
▁vớ	-13.1794
▁caye	-13.181
▁pass	-13.1813
guy	-13.1814
tré	-13.1821
oai	-13.1826
uber	-13.1832
▁shib	-13.184
lại	-13.1855
effiel	-13.1864
obot	-13.1866
▁aki	-13.1868
otto	-13.1869
▁juli	-13.1876
▁on	-13.1876
art	-13.188
tây	-13.1881
▁edo	-13.1888
eaves	-13.1898
quên	-13.19
hâu	-13.1903
treo	-13.1904
eb	-13.1911
ultim	-13.1911
okla	-13.1916
sari	-13.1917
▁dae	-13.1919
hắn	-13.1924
đá	-13.1925
▁she	-13.1926
lỗi	-13.1927
game	-13.193
ronaldo	-13.1931
biết	-13.1931
vé	-13.1934
▁metal	-13.1934
haas	-13.1941
▁gô	-13.1942
halla	-13.1947
▁bej	-13.195
hóc	-13.1959
zak	-13.1962
len	-13.1968
ebra	-13.1969
gre	-13.1978
trúng	-13.1984
lund	-13.1985
▁gors	-13.1987
biệt	-13.1988
khoảnh	-13.1989
▁brom	-13.1991
▁yuso	-13.1992
▁book	-13.1994
achac	-13.1995
tỉnh	-13.2
▁moran	-13.2005
bayern	-13.2007
đắt	-13.2012
▁kra	-13.2014
yar	-13.202
nikov	-13.2029
xịn	-13.203
▁mirr	-13.2033
box	-13.2033
▁acr	-13.2034
hạnh	-13.2035
▁muố	-13.2039
▁ngh	-13.2053
oza	-13.2056
mong	-13.206
ía	-13.2061
đe	-13.2063
hẻm	-13.2069
kal	-13.2074
▁moni	-13.2079
chill	-13.208
thuộc	-13.208
kong	-13.2087
inho	-13.209
kwan	-13.2091
lora	-13.2098
aegu	-13.2098
bão	-13.2105
dao	-13.2121
hein	-13.2125
unes	-13.2142
dwig	-13.2145
▁kie	-13.2154
trục	-13.2157
life	-13.2165
▁pre	-13.2166
buk	-13.2166
▁vj	-13.2172
aren	-13.2174
web	-13.2174
ile	-13.2177
vòi	-13.2184
ders	-13.2185
bát	-13.2186
yev	-13.2197
õ	-13.221
trông	-13.2214
mir	-13.2215
jeff	-13.2224
trốn	-13.2227
erald	-13.2227
▁not	-13.2229
itte	-13.2229
sát	-13.2231
edra	-13.2232
mặn	-13.2233
tama	-13.2234
nstein	-13.2235
▁proge	-13.2235
thắt	-13.2239
▁phok	-13.224
ehri	-13.2245
silicon	-13.2255
▁perr	-13.2269
cổng	-13.2273
▁fiv	-13.2274
bơm	-13.2281
chinh	-13.2284
tuyển	-13.2284
dò	-13.2292
▁uni	-13.2299
gốm	-13.23
gauff	-13.231
hotel	-13.2311
onto	-13.2315
light	-13.232
hường	-13.2321
ngựa	-13.2325
llett	-13.2326
▁chơ	-13.2327
bruno	-13.2327
school	-13.2331
▁chat	-13.2334
black	-13.2334
aric	-13.2336
dam	-13.2336
eh	-13.2347
▁hane	-13.235
▁ente	-13.2351
oord	-13.2351
orte	-13.2352
▁hert	-13.2352
▁burg	-13.2353
town	-13.2357
enfi	-13.2359
móc	-13.236
ginger	-13.2364
ritz	-13.237
good	-13.2371
▁xộ	-13.2376
▁vọ	-13.2378
▁patan	-13.2378
rasmus	-13.2383
sếp	-13.2384
bright	-13.2385
rus	-13.2389
cou	-13.2395
tland	-13.2398
ươn	-13.2404
đệ	-13.241
khát	-13.2415
▁fou	-13.2427
if	-13.2428
hitch	-13.2435
rca	-13.2441
opd	-13.2444
▁slem	-13.2447
biểu	-13.2457
enna	-13.2462
▁gâ	-13.2462
hóa	-13.2471
đơn	-13.2484
tese	-13.2489
nhu	-13.2494
riga	-13.2497
hung	-13.2497
thua	-13.2497
dana	-13.2502
aine	-13.2508
minh	-13.251
nagar	-13.2532
ife	-13.2535
ights	-13.2539
▁kí	-13.2542
od	-13.2545
▁mụ	-13.2545
ago	-13.2548
lant	-13.255
spa	-13.2556
▁maris	-13.2557
▁hue	-13.2559
▁crea	-13.2559
mond	-13.2563
cò	-13.2571
ngăn	-13.2572
nay	-13.2573
henge	-13.2581
ạng	-13.2581
▁ig	-13.2582
avy	-13.2582
▁rid	-13.2588
▁vâu	-13.259
khoan	-13.2597
enhei	-13.2599
oso	-13.2603
ente	-13.2608
▁part	-13.261
fli	-13.261
rola	-13.2612
▁đãng	-13.2614
illis	-13.2625
▁phâ	-13.2634
kot	-13.2635
▁mb	-13.2639
estro	-13.2639
jc	-13.264
▁sop	-13.2642
▁ast	-13.2643
▁william	-13.2649
brin	-13.2651
kiểm	-13.2661
avel	-13.2665
vị	-13.2669
astro	-13.2669
roton	-13.2669
smic	-13.2672
set	-13.2677
andro	-13.2686
▁mill	-13.2687
▁connect	-13.2696
▁hall	-13.2697
tiết	-13.2698
▁seik	-13.27
afe	-13.2701
wing	-13.2702
ath	-13.2704
win	-13.2706
akpo	-13.2706
ướn	-13.2707
▁thán	-13.2719
▁sega	-13.272
lia	-13.2721
▁bazz	-13.2721
oud	-13.2725
▁clas	-13.2727
urak	-13.273
ancy	-13.2734
guin	-13.2737
▁iskander	-13.2746
▁marvel	-13.2746
quoi	-13.2748
depesha	-13.2748
▁botulinum	-13.2748
▁chalmers	-13.2748
▁copilot	-13.2748
▁cytokine	-13.2748
▁dolomite	-13.2748
▁enterprise	-13.2748
▁faisal	-13.2748
▁institut	-13.2748
▁kaiser	-13.2748
▁kaveripattinam	-13.2748
▁kayseri	-13.2748
▁mitsubishi	-13.2748
▁pfebve	-13.2748
▁pharmaceutical	-13.2748
▁pierrehugues	-13.2748
▁polakis	-13.2748
▁rollsroyce	-13.2748
▁saffron	-13.2748
▁shadowscalp	-13.2748
▁sharjah	-13.2748
▁smotric	-13.2748
▁songthaew	-13.2748
▁transistor	-13.2748
▁endrick	-13.2748
▁magneti	-13.2748
▁pretoria	-13.2748
▁snork	-13.2748
▁trawanga	-13.2748
▁yunarmi	-13.2748
▁penicillin	-13.2748
▁alexanderarnol	-13.2748
▁analytic	-13.2748
▁cctv	-13.2748
▁deepmind	-13.2748
▁expert	-13.2748
▁lawrence	-13.2748
▁warrior	-13.2748
▁fortinet	-13.2748
▁macchiat	-13.2748
▁residence	-13.2748
▁volks	-13.2748
▁queensland	-13.2748
▁recep	-13.2748
▁icloud	-13.2748
▁gulf	-13.2748
glyceri	-13.2748
▁moderna	-13.2748
▁computer	-13.2748
▁wolfsburg	-13.2748
▁oshima	-13.2749
▁welch	-13.2749
▁atlas	-13.2749
▁valugan	-13.2749
▁network	-13.2749
▁violin	-13.2749
▁next	-13.2749
▁fashion	-13.2749
▁hallow	-13.2749
▁etf	-13.2749
▁brosse	-13.2749
▁gasquet	-13.2749
▁lumiere	-13.2749
▁khaled	-13.2749
▁cubars	-13.2749
▁guide	-13.2749
▁oahu	-13.2749
▁fury	-13.2749
▁kandal	-13.2749
▁holland	-13.2749
▁flyer	-13.275
▁hollow	-13.275
▁isabel	-13.275
▁hẫng	-13.275
deadline	-13.275
shiyama	-13.275
▁pasta	-13.2751
▁sahara	-13.2751
▁iskanderk	-13.2751
▁aleksander	-13.2751
▁gallantes	-13.2751
▁hurun	-13.2752
▁berna	-13.2752
▁tsui	-13.2752
dependen	-13.2752
▁glaci	-13.2752
▁yassi	-13.2752
▁dewa	-13.2752
▁alexei	-13.2752
borough	-13.2753
▁barnet	-13.2753
▁orion	-13.2753
▁phraya	-13.2753
ouche	-13.2753
▁armavi	-13.2753
▁emerald	-13.2754
▁samoa	-13.2754
▁persib	-13.2754
atharine	-13.2754
▁benett	-13.2754
▁beram	-13.2755
align	-13.2755
▁ferran	-13.2755
▁snape	-13.2755
direct	-13.2755
▁vasily	-13.2756
▁grimm	-13.2756
rzy	-13.2756
▁nhétheo	-13.2757
▁stea	-13.2757
ekk	-13.2758
▁gon	-13.2758
▁lollie	-13.2758
▁valve	-13.2758
▁year	-13.2759
▁udai	-13.2759
rovsk	-13.2759
▁socie	-13.2759
▁quick	-13.2759
wasser	-13.276
▁europe	-13.276
▁karl	-13.2761
▁kahn	-13.2761
cock	-13.2762
▁kaman	-13.2763
andalu	-13.2764
▁vitali	-13.2765
▁polyp	-13.2766
▁german	-13.2767
bgiây	-13.2767
▁apc	-13.2768
estre	-13.2769
▁turk	-13.2769
byl	-13.2769
brugge	-13.277
▁nancy	-13.277
▁down	-13.2771
▁commo	-13.2772
▁pok	-13.2773
▁fabian	-13.2773
gas	-13.2774
▁pfe	-13.2776
▁alt	-13.2777
bara	-13.2778
▁lauren	-13.2778
yeong	-13.2778
igor	-13.2779
resident	-13.278
▁mochi	-13.2782
fana	-13.2782
▁teams	-13.2783
▁bun	-13.2783
▁dioxin	-13.2784
kla	-13.2784
▁astra	-13.2785
▁yoko	-13.2787
▁muean	-13.2787
road	-13.2788
▁coron	-13.2789
▁kaing	-13.2791
slaut	-13.2793
yu	-13.2793
hờ	-13.2798
lear	-13.2798
▁yerm	-13.2798
ime	-13.2799
politan	-13.2801
▁nile	-13.2802
▁connecti	-13.2803
▁kyryl	-13.2804
sters	-13.2804
oslov	-13.2804
kyli	-13.2806
▁mess	-13.2806
uman	-13.2808
▁heb	-13.2808
organ	-13.2809
▁tapia	-13.2812
▁khasi	-13.2814
▁marca	-13.2815
▁engine	-13.2815
▁bros	-13.2816
tive	-13.2818
rough	-13.2818
ifly	-13.2818
▁mentor	-13.2821
▁laci	-13.2821
▁wald	-13.2822
▁nhẩy	-13.2824
▁steven	-13.2825
▁sofia	-13.2825
▁twin	-13.2825
▁medicine	-13.2826
lobalgrasshopper	-13.2826
use	-13.2827
▁reim	-13.2828
▁court	-13.2828
▁keto	-13.2829
▁pet	-13.283
▁study	-13.2832
▁anast	-13.2832
tsy	-13.2833
▁frederic	-13.2833
rmal	-13.2836
▁electron	-13.2836
iwat	-13.284
qbal	-13.2842
▁korea	-13.2845
auff	-13.2846
innes	-13.2849
▁petro	-13.2851
▁gavic	-13.2852
je	-13.2857
zoli	-13.2857
▁stephan	-13.2858
▁leb	-13.2859
▁care	-13.2865
▁jiang	-13.2865
▁event	-13.2869
▁agni	-13.2869
▁chuồn	-13.2872
▁ky	-13.2876
errani	-13.2877
chiều	-13.2878
alpine	-13.2879
era	-13.2881
▁xvii	-13.2885
▁financ	-13.2887
taglia	-13.2889
oroc	-13.2891
gnan	-13.2899
iontec	-13.2901
resol	-13.2902
mở	-13.2903
arbour	-13.2904
huấn	-13.2906
telegraph	-13.291
▁henri	-13.2911
▁ambr	-13.2913
▁stefani	-13.2913
▁hĩnh	-13.2914
pr	-13.2915
▁eug	-13.2921
▁if	-13.2925
orce	-13.2928
chenko	-13.2928
▁quệt	-13.2931
▁vịn	-13.2933
inder	-13.2934
ire	-13.2937
▁prior	-13.2937
▁tandoor	-13.2937
▁xuể	-13.2938
gwon	-13.294
una	-13.294
gov	-13.2941
care	-13.2945
▁imc	-13.2945
outh	-13.2945
thuốc	-13.2951
under	-13.2956
▁sve	-13.2964
▁marqui	-13.2971
adesh	-13.2972
ntuck	-13.2976
tệ	-13.2977
hiệp	-13.2985
ny	-13.2989
luật	-13.2993
▁coun	-13.2995
▁fedor	-13.2998
tori	-13.3
▁burk	-13.3
▁crom	-13.3002
▁kaj	-13.3003
xing	-13.301
devi	-13.3011
ograd	-13.302
ĩa	-13.3021
sok	-13.3028
arten	-13.3031
iumi	-13.3032
▁ramad	-13.3033
▁jessic	-13.3034
aura	-13.3035
▁phúthpt	-13.3036
▁franco	-13.3037
▁truth	-13.3038
zerb	-13.3039
elle	-13.3041
rie	-13.3041
▁marino	-13.3045
giúp	-13.3048
▁kita	-13.306
cây	-13.3062
▁copy	-13.3065
▁marsha	-13.307
iff	-13.3075
▁blanc	-13.3076
reat	-13.3078
roos	-13.3083
wto	-13.3085
quái	-13.3087
rmo	-13.3088
kushi	-13.3092
▁eva	-13.3095
fra	-13.3112
phép	-13.3114
ụng	-13.3118
ravi	-13.3119
cạnh	-13.3124
▁rasmus	-13.3127
▁bell	-13.3129
▁dặt	-13.313
vn	-13.3133
▁boh	-13.3146
▁zamb	-13.3147
gara	-13.3149
prof	-13.315
▁lipo	-13.3159
▁grad	-13.3162
▁push	-13.3168
▁fina	-13.3169
▁but	-13.3171
▁mống	-13.3172
độc	-13.3184
▁wait	-13.3185
▁iw	-13.3186
riza	-13.3186
tion	-13.3187
▁francesc	-13.3194
▁flori	-13.3196
▁shen	-13.32
▁wind	-13.3202
source	-13.3205
cer	-13.3207
assil	-13.321
agr	-13.3212
▁bayer	-13.3213
định	-13.3216
▁flow	-13.3221
▁delo	-13.3224
zakh	-13.3231
ầng	-13.3234
ores	-13.3235
erde	-13.3238
▁hỷ	-13.3238
tica	-13.3241
alcom	-13.3241
▁rivi	-13.3247
▁vèo	-13.325
cộng	-13.3252
▁salv	-13.3253
▁chiề	-13.3261
▁zak	-13.3263
▁gui	-13.3264
▁vest	-13.3266
ony	-13.3269
thường	-13.3271
insul	-13.3271
wani	-13.3272
▁độn	-13.3275
▁ret	-13.3275
▁siri	-13.3276
▁hol	-13.3277
▁zoo	-13.3277
mble	-13.3287
amel	-13.3287
ere	-13.3291
▁brun	-13.3292
grad	-13.3294
pire	-13.3298
▁eis	-13.3299
▁stra	-13.3302
meme	-13.3302
▁brand	-13.3307
hắc	-13.3308
rela	-13.3308
▁joko	-13.3309
emery	-13.3311
▁far	-13.3312
▁cor	-13.3314
ngành	-13.3323
rục	-13.3326
▁mị	-13.3327
▁tơi	-13.3333
nhanh	-13.3334
agoya	-13.3335
ealth	-13.3336
triển	-13.3337
robb	-13.3338
▁ướ	-13.3338
ade	-13.3338
▁bả	-13.3341
orwi	-13.3345
▁nup	-13.3347
▁suva	-13.335
nath	-13.335
yz	-13.3356
trol	-13.3359
ggs	-13.3359
▁ark	-13.3361
amin	-13.3363
▁sei	-13.3365
▁estrel	-13.3369
▁fly	-13.3376
đời	-13.3377
kay	-13.3378
svara	-13.3385
▁mart	-13.3386
krai	-13.3394
▁lak	-13.3395
▁pem	-13.3406
zar	-13.3408
non	-13.341
▁chad	-13.3416
▁bili	-13.3418
kts	-13.3421
kos	-13.3425
▁cươ	-13.3441
▁ext	-13.3444
dành	-13.3454
dd	-13.346
pbank	-13.3469
▁cáu	-13.3471
▁axe	-13.3471
▁ratan	-13.3473
trần	-13.3477
tage	-13.3477
ring	-13.3477
your	-13.3482
melia	-13.3492
lovo	-13.3498
▁ramos	-13.3498
mote	-13.35
nior	-13.3501
▁prog	-13.3502
risto	-13.3508
lea	-13.352
amura	-13.3526
▁virgi	-13.3529
hữu	-13.3533
trời	-13.3533
gio	-13.3537
▁ưng	-13.3544
địch	-13.3546
last	-13.355
rell	-13.3552
cat	-13.3557
ềnh	-13.3559
▁riết	-13.356
inger	-13.3563
ul	-13.3582
eiji	-13.3589
▁mor	-13.3591
anz	-13.3593
▁tao	-13.3601
zh	-13.3604
amberg	-13.3606
▁hớt	-13.3607
tom	-13.3614
enji	-13.3617
▁arto	-13.3619
▁brow	-13.363
santa	-13.364
▁colin	-13.3646
▁dec	-13.3651
ise	-13.3654
siu	-13.3655
shi	-13.3658
trica	-13.3669
ị	-13.3669
▁ferrer	-13.368
▁ein	-13.369
lương	-13.3695
gmat	-13.3696
khác	-13.3697
eston	-13.3699
▁shar	-13.37
chin	-13.3705
lake	-13.3706
▁mớ	-13.3706
assam	-13.3709
▁sing	-13.3712
hỏi	-13.3712
▁jali	-13.3719
evo	-13.3728
▁sé	-13.3732
hí	-13.3735
sis	-13.3736
exy	-13.3736
▁gor	-13.3743
▁zer	-13.3753
ot	-13.3754
tc	-13.3758
rnab	-13.3759
ibm	-13.3765
▁grie	-13.3767
▁kar	-13.3768
▁mé	-13.3784
was	-13.3788
ẽo	-13.379
▁medi	-13.3791
▁ridd	-13.3799
chịu	-13.3803
▁luxo	-13.3804
miền	-13.3806
▁vãng	-13.3808
hằm	-13.3838
big	-13.3841
▁miya	-13.3843
▁gán	-13.3844
oose	-13.3849
▁hood	-13.3862
hía	-13.3862
ulu	-13.3862
nào	-13.3874
onta	-13.3878
▁courc	-13.3883
nger	-13.3885
illas	-13.39
cil	-13.3906
thẩm	-13.3913
enson	-13.392
linh	-13.3921
rsche	-13.3935
ờm	-13.3941
▁aval	-13.3948
▁guill	-13.3951
cử	-13.3956
▁lac	-13.396
đình	-13.3968
ngồi	-13.397
binh	-13.3982
xếp	-13.399
cát	-13.3997
▁diet	-13.3998
▁coc	-13.4
sion	-13.4006
▁mid	-13.4012
▁chùn	-13.4014
oọc	-13.4016
seum	-13.4017
mưa	-13.4019
▁liê	-13.402
ines	-13.4023
▁home	-13.4024
azz	-13.4025
raw	-13.4035
iểu	-13.404
bos	-13.4046
alo	-13.4048
thử	-13.405
algar	-13.405
phật	-13.4053
rmand	-13.4054
idan	-13.4057
thú	-13.4058
adid	-13.4062
sson	-13.4068
hiểu	-13.407
horst	-13.4071
▁pod	-13.4078
ccc	-13.4078
musk	-13.408
cựu	-13.4082
thậm	-13.4092
lái	-13.4093
▁sú	-13.4093
ngủ	-13.4095
▁ny	-13.4098
endor	-13.41
giao	-13.4101
▁fenw	-13.4107
ould	-13.4123
phiên	-13.4123
ens	-13.4127
ix	-13.4135
yết	-13.4135
nc	-13.4136
ranch	-13.4139
▁bou	-13.4142
pro	-13.4144
▁ak	-13.4153
▁sv	-13.4154
▁lag	-13.4154
ako	-13.4154
▁pier	-13.4162
dero	-13.4167
▁mahan	-13.4173
milian	-13.4178
weet	-13.4184
gay	-13.4186
eow	-13.4197
upy	-13.4199
nền	-13.4207
matsu	-13.4207
▁bâ	-13.4209
fal	-13.4213
▁ir	-13.4215
▁mornings	-13.4215
tax	-13.4218
▁russel	-13.4219
▁arm	-13.4234
wai	-13.4234
▁carra	-13.4238
tầm	-13.4261
hana	-13.4268
tốc	-13.4268
erch	-13.4278
ebo	-13.4296
▁ngọ	-13.4298
cia	-13.43
▁jura	-13.4301
rajas	-13.4308
▁rốc	-13.4308
sha	-13.4312
quay	-13.4313
▁khư	-13.4315
quý	-13.4317
▁két	-13.4318
ittle	-13.4328
uther	-13.4328
ilov	-13.4335
▁ice	-13.4342
gạo	-13.4352
atz	-13.4357
▁moj	-13.436
▁tah	-13.436
kính	-13.4362
▁coo	-13.4376
▁well	-13.4379
▁xx	-13.438
ylor	-13.438
▁núc	-13.4381
atkins	-13.4383
đông	-13.4384
đưa	-13.4395
▁yor	-13.4396
▁rố	-13.4397
otec	-13.4399
lair	-13.4401
iềng	-13.4423
tva	-13.4428
xúc	-13.4428
nte	-13.443
▁mba	-13.4433
eon	-13.4438
▁get	-13.4446
rnley	-13.4464
lipe	-13.4465
▁stei	-13.4466
hua	-13.4473
allet	-13.4474
suri	-13.4484
vander	-13.4485
▁celeb	-13.4494
champs	-13.45
▁aj	-13.4501
nóc	-13.4505
quino	-13.4507
▁nhổ	-13.4514
lô	-13.4518
reer	-13.4525
bầu	-13.4528
uyết	-13.4532
▁vald	-13.4543
▁ake	-13.4545
▁vừ	-13.4551
▁lap	-13.4559
pt	-13.4562
chấp	-13.4566
▁gọ	-13.4569
yli	-13.4571
nhẹ	-13.4584
▁quâ	-13.4586
▁ivi	-13.4586
▁gard	-13.4587
bỉm	-13.4588
▁nakam	-13.4588
gne	-13.4592
▁tok	-13.4593
▁mila	-13.46
▁rờ	-13.4603
dal	-13.4607
nuôi	-13.4608
azi	-13.4609
terre	-13.4611
nato	-13.4612
▁novos	-13.4612
elon	-13.4615
▁belv	-13.4615
▁lup	-13.4619
ồm	-13.4623
ustin	-13.4636
itc	-13.4642
doo	-13.4649
nghe	-13.465
inox	-13.465
▁bloom	-13.4659
▁jai	-13.4659
berry	-13.4661
migu	-13.4666
des	-13.4669
oir	-13.4673
▁"'	-13.4684
mont	-13.4688
adow	-13.469
vol	-13.4691
phiếu	-13.4695
tain	-13.4696
▁stud	-13.4696
▁kul	-13.4707
triều	-13.4709
igu	-13.471
addi	-13.4716
sim	-13.4717
eyk	-13.4722
iso	-13.4727
thang	-13.473
ble	-13.4731
▁nid	-13.4731
▁khắ	-13.4746
▁nort	-13.4748
dore	-13.4756
▁sud	-13.476
▁sey	-13.4767
thon	-13.4768
thus	-13.4787
sse	-13.4793
▁mano	-13.4795
nối	-13.4798
ín	-13.48
nhắc	-13.4802
chấn	-13.4812
▁trụy	-13.482
trip	-13.4823
cà	-13.4839
rde	-13.4844
▁cưa	-13.4847
cắt	-13.4854
car	-13.4856
ever	-13.4857
vm	-13.4863
▁kay	-13.4868
▁ké	-13.4872
▁maki	-13.4873
năng	-13.4874
▁khàn	-13.488
libr	-13.4881
nửa	-13.4882
shin	-13.4885
ịt	-13.4895
đọc	-13.4896
▁dali	-13.4901
▁rick	-13.4901
pande	-13.4908
▁kee	-13.4909
▁pand	-13.491
▁noi	-13.4916
▁suit	-13.4921
▁bầ	-13.4921
▁zur	-13.4927
aily	-13.4928
lta	-13.4928
otte	-13.4934
are	-13.494
▁ferm	-13.4943
chim	-13.4951
cd	-13.4952
cháu	-13.496
lat	-13.4964
rach	-13.4966
nha	-13.4967
minsk	-13.4969
agne	-13.4971
scal	-13.4977
nhấn	-13.4977
khí	-13.498
ports	-13.4983
kêu	-13.4984
▁plo	-13.4987
bắn	-13.4987
▁eds	-13.4993
▁comp	-13.4993
stras	-13.5002
sun	-13.5005
▁dc	-13.5008
elai	-13.5008
cú	-13.501
▁peters	-13.5011
đạo	-13.5019
▁rf	-13.5028
tổn	-13.503
cứu	-13.5031
▁rij	-13.5031
nỗ	-13.5035
▁xổ	-13.5037
dame	-13.5039
▁kiền	-13.5041
chín	-13.5042
▁thề	-13.5049
chấm	-13.5049
▁raja	-13.5056
bàn	-13.506
tv	-13.5064
rst	-13.5077
▁ssi	-13.5078
▁merc	-13.5084
vũng	-13.5088
xấu	-13.5091
hya	-13.5093
▁guard	-13.5093
▁naka	-13.5096
capri	-13.5099
▁reis	-13.5099
tiềm	-13.5101
▁lux	-13.5102
djokovic	-13.5104
▁sarac	-13.5104
▁ec	-13.5107
▁wou	-13.5114
mmel	-13.5114
▁wen	-13.5117
▁thỉ	-13.5117
anjin	-13.512
thả	-13.5122
alde	-13.5123
▁merk	-13.5128
nders	-13.513
aron	-13.5141
dur	-13.5145
urry	-13.5146
iken	-13.5148
psg	-13.515
truyền	-13.5153
urgu	-13.5154
kyo	-13.5159
ag	-13.5161
dậy	-13.5181
sta	-13.5185
đợi	-13.5188
▁has	-13.5192
ainz	-13.5194
rut	-13.5201
bill	-13.5212
lãng	-13.5216
▁note	-13.5218
▁yus	-13.5218
ital	-13.5218
chơi	-13.522
uz	-13.5222
lệch	-13.5223
protein	-13.5224
par	-13.523
▁equi	-13.5231
▁cưỡ	-13.5239
oto	-13.5244
ancelotti	-13.5245
dale	-13.525
dị	-13.525
▁chừ	-13.5252
▁arg	-13.5253
lqui	-13.5275
ett	-13.5279
gành	-13.5283
▁iwam	-13.5287
hell	-13.5293
nyang	-13.5297
▁mig	-13.53
đồ	-13.5309
kiên	-13.531
bạo	-13.5313
evk	-13.5318
com	-13.5323
▁moz	-13.5325
lier	-13.5344
bruc	-13.5344
thảm	-13.5347
bitcoin	-13.537
nashi	-13.5371
▁shel	-13.5371
▁càn	-13.5379
▁xm	-13.5383
taxi	-13.5389
lũ	-13.5396
hùm	-13.5396
guardiola	-13.5399
▁gallu	-13.5403
cơm	-13.5408
gpt	-13.5414
▁shik	-13.5415
▁econom	-13.5417
uric	-13.5419
▁romer	-13.542
uốn	-13.5424
tọa	-13.5432
katan	-13.5435
▁vò	-13.5438
ah	-13.5439
▁dha	-13.5447
▁quai	-13.5447
▁inn	-13.5448
▁manu	-13.5452
▁ferr	-13.5454
▁jor	-13.5456
xavi	-13.5462
elie	-13.5466
nụ	-13.5466
đùa	-13.5467
huế	-13.5467
▁sto	-13.5474
▁tak	-13.5476
anas	-13.5477
▁rob	-13.5477
▁kat	-13.5478
▁eng	-13.5482
checkin	-13.5489
messi	-13.5494
glor	-13.5495
lò	-13.5496
▁jarr	-13.5499
▁geoff	-13.5514
hagl	-13.5515
hái	-13.5519
rubi	-13.5523
▁musta	-13.5524
akio	-13.5532
thân	-13.5534
fc	-13.5536
anata	-13.5537
▁kam	-13.5537
ici	-13.5537
ebast	-13.5548
kevin	-13.5549
john	-13.555
▁awa	-13.5555
steve	-13.5557
▁devi	-13.556
hcm	-13.5562
erpo	-13.5569
blue	-13.5573
anger	-13.5575
vas	-13.5583
eni	-13.5586
đụng	-13.5587
▁mem	-13.5589
▁nit	-13.5594
hummels	-13.5604
hàn	-13.5609
sper	-13.561
mượn	-13.5614
▁mald	-13.5617
athma	-13.5618
▁suv	-13.562
feed	-13.5621
ssad	-13.5624
oof	-13.5626
▁cpa	-13.5631
tế	-13.5631
coffee	-13.5632
iner	-13.5632
zeit	-13.5633
yoshino	-13.5633
wang	-13.5634
▁transf	-13.5635
▁isl	-13.5637
▁jes	-13.5641
pmi	-13.5646
▁frances	-13.5649
acos	-13.5652
giọt	-13.5653
nedin	-13.5656
▁ư	-13.5657
▁luô	-13.566
▁baga	-13.5664
mấy	-13.5666
ogen	-13.5667
dragon	-13.5669
▁gab	-13.5672
fico	-13.5672
yte	-13.5675
ike	-13.5675
copy	-13.5676
zhou	-13.5679
bọn	-13.5686
loom	-13.5686
nla	-13.569
karn	-13.5691
dick	-13.5693
chuồng	-13.5694
gis	-13.5696
pierre	-13.5697
back	-13.5698
bird	-13.57
ném	-13.5701
tation	-13.5707
head	-13.5712
udin	-13.5719
▁shea	-13.572
nka	-13.5728
how	-13.573
hít	-13.5733
amber	-13.5734
▁sab	-13.5735
▁ross	-13.5741
liều	-13.5742
▁jac	-13.5748
bella	-13.575
china	-13.575
ỉn	-13.5758
tige	-13.5759
sil	-13.576
matt	-13.576
lux	-13.5768
tradi	-13.5773
▁bod	-13.5776
idc	-13.578
spe	-13.5782
▁rune	-13.5786
lak	-13.5799
phút	-13.5802
kinse	-13.5813
▁skov	-13.5814
mảnh	-13.5816
gánh	-13.582
bot	-13.5821
obol	-13.5822
suit	-13.5833
uzu	-13.5836
▁geo	-13.5836
▁phươ	-13.5838
wri	-13.5844
mela	-13.5844
ccd	-13.5848
read	-13.5853
▁kawa	-13.5854
gặp	-13.5861
uces	-13.5862
tuk	-13.5865
▁olympi	-13.5869
rao	-13.587
▁gă	-13.5872
▁stars	-13.5874
▁asc	-13.5874
uế	-13.5876
max	-13.5878
▁lé	-13.5884
▁garr	-13.5889
etter	-13.5894
ringen	-13.5895
▁yoshi	-13.5903
gói	-13.5906
leven	-13.5908
▁chích	-13.5911
tum	-13.5913
▁poon	-13.5915
▁nov	-13.5916
▁mad	-13.5917
▁nada	-13.5922
illo	-13.5924
cap	-13.5927
▁jin	-13.5927
otavi	-13.5927
dấp	-13.5929
koku	-13.593
▁cheng	-13.5944
swor	-13.5945
ply	-13.5953
▁handl	-13.5953
hc	-13.5957
ngôn	-13.5958
salpine	-13.5963
hác	-13.5967
▁flore	-13.5968
zot	-13.5973
▁aureli	-13.5978
▁scan	-13.5979
▁pres	-13.5984
▁buô	-13.5988
▁ol	-13.5997
ẫy	-13.5999
tter	-13.6001
mỏ	-13.6001
▁trườn	-13.6002
uf	-13.6003
abel	-13.6012
ap	-13.6013
cún	-13.6013
lì	-13.6018
▁chiê	-13.6027
abat	-13.6029
▁atk	-13.603
jul	-13.6034
endri	-13.6035
▁usai	-13.6036
tune	-13.6038
chen	-13.6041
ghen	-13.6044
▁macro	-13.6048
▁chô	-13.6048
este	-13.6049
cu	-13.605
hần	-13.6052
▁ira	-13.6053
oste	-13.6054
ringe	-13.6054
▁vlad	-13.6055
▁ngứ	-13.6058
▁hanna	-13.6059
▁kal	-13.6061
▁aspi	-13.6062
uerto	-13.6063
elt	-13.6064
▁phìn	-13.6066
▁prince	-13.6069
fp	-13.607
phú	-13.607
nas	-13.607
▁vasil	-13.6072
▁athletic	-13.6073
▁massachusett	-13.6074
▁philippine	-13.6075
▁huý	-13.6076
▁product	-13.6076
▁cntravel	-13.608
▁fred	-13.608
▁parke	-13.6081
oglu	-13.6082
coustic	-13.6082
▁staphyloc	-13.6082
▁yakovlev	-13.6082
▁architect	-13.6082
▁authentic	-13.6082
▁borochov	-13.6082
▁caraballo	-13.6082
▁cmtnd	-13.6082
▁communication	-13.6082
▁corvette	-13.6082
▁cruise	-13.6082
▁dmytro	-13.6082
▁elephant	-13.6082
▁flightradar	-13.6082
▁hodeida	-13.6082
▁hogsmead	-13.6082
▁iimedia	-13.6082
▁intifada	-13.6082
▁milimol	-13.6082
▁nagasaki	-13.6082
▁oleksi	-13.6082
▁olimpic	-13.6082
▁opportunit	-13.6082
▁paracetamol	-13.6082
▁python	-13.6082
▁scaloni	-13.6082
▁septuple	-13.6082
▁skhautomation	-13.6082
▁stingray	-13.6082
▁zubimendi	-13.6082
▁homepod	-13.6082
▁thohir	-13.6082
staycation	-13.6082
▁adaptiv	-13.6082
▁hongfang	-13.6082
▁hwasong	-13.6082
▁masatada	-13.6082
▁cricket	-13.6082
▁imperia	-13.6082
▁covered	-13.6082
▁gamehub	-13.6082
▁puskas	-13.6082
▁wasabi	-13.6082
pixel	-13.6082
▁govea	-13.6082
▁beatrice	-13.6082
aflop	-13.6082
cyborg	-13.6082
▁automatic	-13.6082
▁rybak	-13.6082
▁crater	-13.6082
▁shadow	-13.6082
▁hoeness	-13.6082
▁bruges	-13.6082
▁tajani	-13.6082
▁raptor	-13.6082
▁launch	-13.6082
derdale	-13.6082
▁illness	-13.6082
▁stories	-13.6082
▁tagueu	-13.6082
▁bristol	-13.6082
▁cappucino	-13.6082
▁inglewood	-13.6082
▁reading	-13.6082
▁armour	-13.6082
▁wheel	-13.6082
▁waiting	-13.6082
▁forex	-13.6082
▁ponagar	-13.6082
▁guinea	-13.6082
▁druk	-13.6082
▁tchouam	-13.6082
▁focus	-13.6082
▁stocker	-13.6082
▁gandhi	-13.6083
▁alliance	-13.6083
▁daruma	-13.6083
▁week	-13.6083
▁taximet	-13.6083
▁notre	-13.6083
▁advance	-13.6083
▁heath	-13.6083
building	-13.6083
edere	-13.6083
▁gonzal	-13.6083
▁abdul	-13.6083
▁mezquital	-13.6083
rechau	-13.6083
▁glob	-13.6083
▁zikim	-13.6083
▁crema	-13.6083
▁wander	-13.6083
amadou	-13.6083
fail	-13.6084
▁phyto	-13.6084
▁zaha	-13.6084
▁plaid	-13.6084
▁bloomberg	-13.6084
▁runway	-13.6084
▁hospi	-13.6084
▁swap	-13.6084
▁kindle	-13.6084
▁dioxi	-13.6084
▁matteo	-13.6085
▁retweet	-13.6085
▁clara	-13.6085
ssell	-13.6085
jarat	-13.6086
mổ	-13.6086
▁rishi	-13.6086
▁joanna	-13.6087
▁ronda	-13.6087
▁yuany	-13.6088
▁elliot	-13.6088
▁collin	-13.6088
ione	-13.6088
strict	-13.6088
▁ribeir	-13.6089
▁kenne	-13.6089
▁bergen	-13.6089
▁bogdan	-13.609
▁chrys	-13.609
▁waka	-13.609
ify	-13.6091
▁figo	-13.6091
▁khíkhói	-13.6091
▁tripod	-13.6091
▁unice	-13.6091
▁phễu	-13.6091
▁rachel	-13.6092
▁yểu	-13.6093
▁imagin	-13.6093
▁beauty	-13.6093
▁yuri	-13.6094
▁mills	-13.6094
▁vassil	-13.6095
matase	-13.6095
▁barrow	-13.6095
boro	-13.6096
▁thaler	-13.6096
▁phillip	-13.6096
tyre	-13.6097
▁impa	-13.6097
you	-13.6097
ourse	-13.6098
▁amman	-13.6099
▁patin	-13.6101
▁pitt	-13.6101
lago	-13.6102
▁rudd	-13.6102
▁prud	-13.6102
▁shij	-13.6103
▁dodge	-13.6103
xê	-13.6104
idze	-13.6105
▁melanie	-13.6105
tối	-13.6105
azu	-13.6106
▁humans	-13.6106
tsb	-13.6106
spirit	-13.6106
▁beig	-13.6107
▁hyper	-13.6107
▁radio	-13.6108
foe	-13.6108
▁why	-13.6108
▁kfc	-13.6109
▁craw	-13.6109
▁elastin	-13.6109
splay	-13.6111
▁vpbank	-13.6112
▁compa	-13.6112
▁sever	-13.6114
▁gluc	-13.6115
cques	-13.6118
▁ferenc	-13.6119
rise	-13.612
▁shei	-13.612
▁yashi	-13.6121
▁hugh	-13.6123
▁domino	-13.6124
▁thor	-13.6125
▁quadr	-13.6125
roe	-13.6125
▁cogn	-13.6129
ropoli	-13.6129
skovi	-13.613
▁glen	-13.6133
▁fine	-13.6133
miya	-13.6133
▁mixe	-13.6137
▁aden	-13.6137
▁est	-13.6137
rink	-13.6138
▁ilu	-13.6141
▁ricard	-13.6141
taka	-13.6142
mori	-13.6143
▁indo	-13.6144
▁alberta	-13.6147
▁greene	-13.615
ueno	-13.615
▁spe	-13.6151
uble	-13.6151
weller	-13.6151
cto	-13.6153
rtis	-13.6154
andha	-13.6155
gmy	-13.6155
gado	-13.6156
▁timor	-13.6159
illin	-13.6159
elia	-13.616
núi	-13.6161
▁xẻo	-13.6168
eig	-13.617
▁gaz	-13.6171
lick	-13.6172
ussel	-13.6173
▁beyonc	-13.6174
▁blaue	-13.6175
menico	-13.6183
▁public	-13.6186
▁aurelie	-13.6187
echt	-13.6187
tex	-13.6189
▁jolie	-13.6189
▁chall	-13.6189
▁kuo	-13.6189
▁kitchen	-13.619
▁casi	-13.6191
ềm	-13.6192
bri	-13.6192
▁đụn	-13.6192
▁rita	-13.6193
ocan	-13.6196
▁iq	-13.6197
▁jia	-13.6198
hitz	-13.6199
oil	-13.6201
đủ	-13.6207
▁pack	-13.6207
▁foot	-13.6208
▁posit	-13.6209
ppa	-13.6209
▁kirk	-13.6212
▁danon	-13.6212
chui	-13.6216
▁tuyê	-13.6217
▁block	-13.6217
▁lươn	-13.622
ship	-13.6226
eeds	-13.6234
jump	-13.6235
▁fitz	-13.6238
▁ziz	-13.6239
goya	-13.6245
▁luck	-13.6247
ardo	-13.6248
▁face	-13.6251
▁ngụm	-13.6252
▁guang	-13.6255
hand	-13.6255
orgin	-13.6261
master	-13.6265
▁doming	-13.6265
sơn	-13.6265
▁johns	-13.6267
ợn	-13.6267
▁organi	-13.6272
▁alpha	-13.6274
▁gef	-13.6274
▁slav	-13.6277
kate	-13.6279
▁turb	-13.6279
ox	-13.628
▁erick	-13.6282
▁pilla	-13.6283
õn	-13.6287
ollie	-13.6287
▁hani	-13.6293
losi	-13.6302
▁cosm	-13.6303
muller	-13.6304
rộng	-13.6304
▁happ	-13.6309
▁fabric	-13.6309
argr	-13.6312
▁miss	-13.6313
eta	-13.6314
tuyến	-13.6318
▁sán	-13.6318
ive	-13.6319
▁sony	-13.6321
nix	-13.6323
wara	-13.6325
▁bola	-13.6326
dé	-13.6326
akash	-13.6327
fumi	-13.6327
pháp	-13.633
▁solo	-13.6332
▁august	-13.6334
some	-13.6335
ante	-13.6338
wer	-13.6339
lex	-13.634
hong	-13.6342
itco	-13.6342
embra	-13.6344
pha	-13.6346
▁kyush	-13.6347
▁forest	-13.635
mười	-13.6351
▁villas	-13.6359
▁philippin	-13.637
▁grim	-13.6372
▁chằn	-13.6372
nguồn	-13.6373
▁phiếm	-13.6379
▁ghiền	-13.638
▁swee	-13.6384
nobu	-13.6396
▁thuyê	-13.6396
xi	-13.6401
vin	-13.6402
▁nộimua	-13.6403
▁shira	-13.6404
màu	-13.6407
▁cạ	-13.6408
uck	-13.6414
uô	-13.6418
▁drag	-13.6418
▁spirit	-13.6427
shaw	-13.6428
ranh	-13.6431
▁siê	-13.6441
asper	-13.6442
▁spac	-13.6445
▁grays	-13.6448
iddle	-13.6449
▁alf	-13.6452
▁igl	-13.6458
▁arsen	-13.646
▁chỉn	-13.646
▁mat	-13.6462
▁yant	-13.6463
clusi	-13.6484
mery	-13.6486
▁read	-13.6486
▁mood	-13.6493
▁gạ	-13.6496
ngỡ	-13.6498
ibu	-13.6498
▁vữ	-13.6501
galla	-13.6505
▁gat	-13.6511
hâm	-13.6525
▁alexa	-13.6525
▁shake	-13.653
smane	-13.6531
▁france	-13.6533
undar	-13.6536
annin	-13.6537
arve	-13.654
▁bally	-13.6541
leman	-13.6545
ior	-13.6548
order	-13.6548
aeg	-13.655
▁silver	-13.655
dona	-13.6557
evor	-13.6558
nhảm	-13.656
any	-13.6561
ernot	-13.6561
▁alwa	-13.6562
flow	-13.6566
▁nati	-13.6567
▁clor	-13.6567
▁burn	-13.6572
hama	-13.6575
▁chau	-13.6583
▁lù	-13.6587
▁sấ	-13.6588
sốc	-13.6589
▁đừ	-13.659
▁iris	-13.6597
đăng	-13.6598
leo	-13.6599
▁andr	-13.6599
▁sams	-13.6601
uce	-13.6602
▁wh	-13.6602
▁astor	-13.6609
▁seme	-13.6609
▁pub	-13.6611
ectin	-13.6614
▁koc	-13.6614
▁trờ	-13.6614
hud	-13.6615
xem	-13.662
▁intern	-13.6624
grau	-13.6625
▁ngợ	-13.6626
▁alde	-13.6642
group	-13.6644
ript	-13.6644
ratsk	-13.6648
▁nẻ	-13.6648
tic	-13.6648
▁dwi	-13.665
energ	-13.6656
wei	-13.6659
▁les	-13.6659
melin	-13.6661
▁taw	-13.6673
olyn	-13.6674
travers	-13.6676
▁mum	-13.6678
arrag	-13.6679
▁ameli	-13.6679
lớp	-13.6679
sds	-13.6687
lger	-13.669
ipod	-13.6692
leve	-13.6692
đạt	-13.6701
ichten	-13.6707
reus	-13.671
uôi	-13.6714
né	-13.6716
oec	-13.6718
bai	-13.6719
▁puk	-13.672
▁cop	-13.6724
safe	-13.6725
▁shang	-13.6728
tus	-13.6731
hin	-13.6732
oya	-13.6734
ebrid	-13.6739
▁huber	-13.6744
▁chụ	-13.6758
▁iwa	-13.6762
▁gua	-13.6762
▁char	-13.6763
▁wend	-13.6763
moto	-13.6764
▁got	-13.6766
inawa	-13.6766
quảng	-13.6767
ftel	-13.6771
kaku	-13.6778
norwi	-13.678
eatle	-13.6784
omes	-13.6784
▁economi	-13.6793
haila	-13.6797
▁statu	-13.6803
syri	-13.6804
▁rươ	-13.6804
▁pí	-13.6805
infor	-13.6807
gon	-13.6808
▁oc	-13.681
trian	-13.6811
ague	-13.6813
xanh	-13.6822
eir	-13.6824
lom	-13.6824
uli	-13.6828
gta	-13.6828
▁endos	-13.683
▁saba	-13.6831
▁dí	-13.6838
lviv	-13.6838
▁quino	-13.6839
▁thá	-13.6841
▁sus	-13.6842
ough	-13.6851
coll	-13.6857
▁moren	-13.6861
▁how	-13.6862
tist	-13.6862
▁own	-13.6867
▁cur	-13.6867
▁sav	-13.687
ocket	-13.6872
▁gunn	-13.6875
huộc	-13.6876
llman	-13.689
▁tomos	-13.6899
ự	-13.69
▁marlen	-13.6904
▁cr	-13.6905
mạng	-13.6908
rico	-13.691
roc	-13.6917
ocus	-13.6925
▁off	-13.6926
▁saran	-13.6933
▁aha	-13.6949
ựa	-13.6955
raya	-13.6959
▁mõ	-13.6961
rian	-13.697
nghĩ	-13.698
dr	-13.6985
tara	-13.6986
▁chil	-13.6988
ias	-13.6991
vận	-13.6992
nghiên	-13.6993
mô	-13.7003
dẫn	-13.7003
mation	-13.7004
lton	-13.7016
▁era	-13.7019
▁medic	-13.7022
jp	-13.7028
▁slova	-13.703
dren	-13.7035
dem	-13.7036
iran	-13.7047
arna	-13.7051
▁ravel	-13.7053
ilo	-13.7055
▁marti	-13.7058
uan	-13.7064
ashke	-13.7066
▁manag	-13.707
nợ	-13.7071
oh	-13.7085
▁patrici	-13.7092
dụng	-13.7096
inib	-13.7102
pina	-13.7106
bless	-13.711
▁meri	-13.7112
▁tanya	-13.7113
ôx	-13.7114
ippi	-13.7115
ust	-13.712
dou	-13.7125
mắt	-13.713
bana	-13.7135
▁cel	-13.7136
erme	-13.7139
▁khăm	-13.7141
▁garn	-13.7141
ssa	-13.7145
▁turqu	-13.7147
hoai	-13.7162
mber	-13.7165
ervo	-13.7166
rad	-13.7167
▁nye	-13.7169
nak	-13.7173
matha	-13.7177
toba	-13.7182
▁jans	-13.7185
dani	-13.7185
jit	-13.7186
bok	-13.7187
▁isa	-13.7194
rain	-13.7195
▁chill	-13.7198
▁nươ	-13.7199
khan	-13.7205
yo	-13.7209
▁kangi	-13.7214
rumma	-13.7216
thêm	-13.7216
uý	-13.722
dm	-13.7224
suka	-13.7224
▁yuk	-13.7243
▁obla	-13.7247
▁zhen	-13.7247
alez	-13.7248
dka	-13.725
lang	-13.7252
uke	-13.7252
▁khiê	-13.7256
răm	-13.726
oflav	-13.7266
▁bart	-13.7277
▁elis	-13.7283
atisse	-13.7286
▁reno	-13.729
▁gs	-13.7296
ehl	-13.7313
elop	-13.7315
podo	-13.7317
usse	-13.7319
▁coin	-13.7319
late	-13.7321
str	-13.7325
trị	-13.7334
rec	-13.7334
alia	-13.734
▁oas	-13.735
esot	-13.7358
allett	-13.7361
utan	-13.7361
pec	-13.7383
thawa	-13.7392
▁bilob	-13.7397
ook	-13.74
rley	-13.7402
▁nhò	-13.741
bissa	-13.7414
▁thằn	-13.7429
▁minis	-13.7432
▁hak	-13.7432
▁miện	-13.7434
ortic	-13.7435
mbo	-13.744
aria	-13.7456
phó	-13.7462
▁sous	-13.7462
▁mass	-13.7472
▁phiế	-13.7485
▁bad	-13.7485
tiên	-13.7495
▁jacobs	-13.7497
▁chips	-13.7497
tảo	-13.75
▁asse	-13.7501
ylia	-13.7512
▁grow	-13.7514
ivi	-13.7515
core	-13.7522
mau	-13.7526
ech	-13.7531
but	-13.7534
plo	-13.7534
ỗng	-13.7538
▁dấ	-13.7538
olu	-13.754
ake	-13.7554
ropic	-13.7556
▁osu	-13.7556
arie	-13.7559
pac	-13.7561
▁tăn	-13.7566
boy	-13.7568
nson	-13.757
onrad	-13.7579
juk	-13.7581
hảo	-13.7589
▁level	-13.7595
▁cấ	-13.7602
▁thank	-13.7604
lves	-13.7608
▁buda	-13.7609
tòa	-13.7611
▁thó	-13.7621
▁liề	-13.7623
nghiện	-13.7623
ardia	-13.7642
oyo	-13.7645
▁coop	-13.7651
▁true	-13.7653
ffle	-13.7655
hiê	-13.7656
pos	-13.7662
qui	-13.7663
trò	-13.7669
▁chun	-13.767
▁bl	-13.7674
▁mus	-13.7675
khai	-13.7675
ellu	-13.7681
elti	-13.7686
▁vă	-13.7692
▁hâ	-13.7695
abue	-13.7696
▁cacha	-13.7696
▁kur	-13.77
▁sy	-13.771
▁mae	-13.7714
▁hì	-13.7715
paul	-13.7737
enja	-13.7737
▁lẹ	-13.7744
hào	-13.7748
oy	-13.7756
▁kolo	-13.7757
elect	-13.7765
cse	-13.7772
▁trat	-13.7787
rta	-13.7793
stem	-13.7794
cối	-13.7803
anton	-13.7804
ns	-13.7811
ience	-13.7812
anama	-13.7818
ghe	-13.7841
hĩa	-13.7848
pati	-13.7854
hùng	-13.7856
▁đơ	-13.7856
flue	-13.7858
rải	-13.7861
▁tempe	-13.7862
▁stell	-13.7864
▁muri	-13.788
sơ	-13.7888
▁fernand	-13.7892
tsu	-13.7897
▁ré	-13.7901
squet	-13.7915
hip	-13.7918
vera	-13.7929
idea	-13.7932
▁whiteha	-13.7933
▁ichi	-13.7935
hiễm	-13.7936
góc	-13.795
▁hal	-13.795
ique	-13.7951
hael	-13.7962
ậu	-13.7965
lb	-13.7967
èm	-13.7973
dài	-13.7978
lens	-13.7992
▁kiết	-13.7994
ẫng	-13.7999
▁found	-13.8003
rô	-13.8004
▁lik	-13.8011
gác	-13.8014
pico	-13.8015
enso	-13.8016
▁outl	-13.8019
ical	-13.802
atas	-13.8021
hòm	-13.8023
trai	-13.8024
lạc	-13.8026
lcom	-13.8026
▁calde	-13.8031
▁barco	-13.8031
lland	-13.8041
▁trenc	-13.8042
lance	-13.8045
▁deer	-13.8048
▁pata	-13.8054
▁miê	-13.8058
▁xâ	-13.8064
pad	-13.8067
▁demb	-13.8077
▁passi	-13.8089
dv	-13.8092
thừa	-13.8094
khẩu	-13.81
irm	-13.8116
▁verm	-13.8118
▁mall	-13.8121
▁pao	-13.8123
▁suka	-13.8126
▁dix	-13.8135
pher	-13.8141
nw	-13.8141
▁zona	-13.8144
oyl	-13.8146
▁khuyển	-13.8147
chỗ	-13.8154
ctive	-13.8162
oast	-13.8169
wel	-13.817
akta	-13.8173
thuyền	-13.8181
adh	-13.8206
ese	-13.8208
▁spea	-13.8215
oute	-13.8219
rót	-13.822
vai	-13.8221
moji	-13.8236
ehr	-13.824
▁hèn	-13.8241
nyu	-13.8242
upp	-13.8246
▁dub	-13.8246
▁epi	-13.8248
▁hect	-13.8255
▁lôm	-13.826
ingo	-13.8263
hú	-13.8264
▁đẫn	-13.8269
ón	-13.8273
amatsu	-13.8279
▁thớ	-13.8281
stop	-13.8282
gna	-13.8282
▁pharma	-13.8296
iber	-13.83
▁ecol	-13.8301
▁side	-13.8307
vẻ	-13.8307
name	-13.8315
▁prim	-13.8331
▁roo	-13.8335
hiền	-13.8335
zer	-13.834
cư	-13.8343
▁halla	-13.8345
agoo	-13.8348
lett	-13.8351
▁ada	-13.8353
▁usda	-13.8357
edst	-13.8361
▁alto	-13.8362
lagi	-13.8373
▁aranc	-13.8376
rrito	-13.8376
▁carto	-13.8385
kman	-13.8388
▁muỗ	-13.839
rial	-13.8391
tte	-13.8395
▁chalt	-13.8398
▁shing	-13.84
▁hans	-13.8406
▁vond	-13.8408
▁nui	-13.842
lore	-13.8422
rin	-13.8423
▁mố	-13.8427
▁nệ	-13.8427
▁fp	-13.8432
cải	-13.8439
vag	-13.8442
poche	-13.8451
idence	-13.8454
▁rôn	-13.846
sca	-13.8463
hực	-13.8468
ernie	-13.8471
eman	-13.848
▁mic	-13.8482
chetti	-13.8488
uông	-13.8488
ode	-13.8493
illy	-13.8494
sato	-13.8501
tái	-13.8505
▁gá	-13.8506
deb	-13.8512
đáp	-13.8515
cai	-13.8525
gẫu	-13.8534
ọ	-13.8535
yl	-13.8535
frey	-13.8549
xã	-13.8549
▁mct	-13.8554
mba	-13.8559
muel	-13.8564
miễn	-13.8564
đấu	-13.8565
▁glut	-13.8566
▁theate	-13.8569
▁wild	-13.8571
khối	-13.8577
▁crow	-13.8582
oxid	-13.8587
shas	-13.8594
mái	-13.8596
▁ghì	-13.8601
hila	-13.8619
▁prag	-13.8623
▁bốp	-13.8624
lly	-13.8629
ylen	-13.8639
lines	-13.8642
ngju	-13.8642
ủn	-13.8645
giữa	-13.8648
àu	-13.8662
ookl	-13.8664
▁fle	-13.8667
ori	-13.8674
▁enter	-13.8678
▁take	-13.8689
dừng	-13.8689
lâm	-13.8691
chỉnh	-13.8692
edam	-13.8696
ớc	-13.8697
▁zan	-13.8698
▁form	-13.8705
colog	-13.8711
vir	-13.8713
▁pale	-13.8718
forme	-13.8722
oài	-13.8729
thí	-13.8743
▁ryo	-13.8745
▁brag	-13.8754
▁rọ	-13.8757
urma	-13.8771
▁broad	-13.8779
thoát	-13.8783
imber	-13.8784
chờ	-13.8787
phổ	-13.8796
ning	-13.8821
mũi	-13.8829
gor	-13.8835
▁áng	-13.8843
ghè	-13.8848
tteri	-13.8855
đen	-13.8869
▁oli	-13.887
▁sten	-13.8877
ibe	-13.8883
đoán	-13.8888
zu	-13.8894
irat	-13.8896
trưởng	-13.8896
▁rủa	-13.8899
vice	-13.89
stadi	-13.8908
erd	-13.8908
dịp	-13.8914
đèn	-13.892
bf	-13.8925
gt	-13.8929
▁rue	-13.8945
▁bmi	-13.895
mát	-13.8956
occ	-13.8958
metal	-13.8959
rời	-13.8959
jee	-13.8962
bil	-13.8973
quần	-13.8986
chậm	-13.8988
erraz	-13.8991
bit	-13.8993
▁mangal	-13.8995
rì	-13.9
mẫu	-13.9003
phe	-13.9006
▁barba	-13.9015
▁ngâ	-13.9021
ati	-13.9031
yuni	-13.9034
▁tưng	-13.9034
velt	-13.9044
▁hur	-13.9046
▁bond	-13.9047
▁gaul	-13.9055
mah	-13.9055
gal	-13.9059
đảng	-13.906
đâu	-13.9062
akur	-13.9063
peu	-13.9079
nox	-13.9083
zach	-13.9084
▁gels	-13.9086
afa	-13.9092
▁vp	-13.9093
▁casca	-13.9099
diff	-13.9103
lmon	-13.9104
nasa	-13.9105
poul	-13.9109
ibo	-13.9113
▁hấn	-13.9117
day	-13.9118
ges	-13.9118
thiệt	-13.9118
ssch	-13.9123
biện	-13.9125
▁xoan	-13.9125
urman	-13.9128
▁hero	-13.9136
▁castle	-13.9139
kem	-13.9146
imi	-13.9157
cken	-13.9161
aks	-13.9161
bus	-13.9164
▁stab	-13.9164
itter	-13.9171
▁pou	-13.9171
takt	-13.9178
▁tur	-13.9179
▁yell	-13.918
giây	-13.9182
▁reve	-13.919
▁ck	-13.9191
loài	-13.9193
gula	-13.9198
▁mold	-13.9206
▁kant	-13.9207
jk	-13.921
tháp	-13.9211
dầu	-13.9214
▁aca	-13.9218
▁mân	-13.9219
quỹ	-13.9221
sthan	-13.9228
rant	-13.924
asse	-13.9248
▁cni	-13.9253
eol	-13.9258
tục	-13.9259
tín	-13.9262
mà	-13.9266
ceo	-13.9268
rk	-13.9273
òm	-13.9276
vệ	-13.9279
sea	-13.9282
dải	-13.9289
rrier	-13.9297
ener	-13.9303
▁valle	-13.9313
▁arri	-13.9314
rae	-13.9316
facebook	-13.932
dạy	-13.9326
lab	-13.9327
aci	-13.933
awah	-13.9332
horne	-13.9334
etar	-13.9343
ute	-13.9344
mềm	-13.9344
eko	-13.9345
▁tó	-13.935
rber	-13.9351
▁jar	-13.9367
▁gelat	-13.9372
▁quậ	-13.9374
moon	-13.9376
ukm	-13.9378
▁ukr	-13.9391
aser	-13.9395
▁mọ	-13.9402
▁nil	-13.9409
sắp	-13.9415
▁dre	-13.9418
lover	-13.9419
cle	-13.9424
sạch	-13.9426
imes	-13.943
usant	-13.9432
trồng	-13.9441
wen	-13.9449
ngữ	-13.9452
nhiên	-13.9452
acho	-13.9455
iê	-13.9458
marine	-13.9462
huộ	-13.9463
nada	-13.9471
▁weera	-13.9483
pula	-13.9485
lạ	-13.9489
▁phen	-13.9495
▁oran	-13.9496
une	-13.9504
bùng	-13.9504
▁citi	-13.9505
ational	-13.9515
phước	-13.9524
▁bid	-13.9551
aids	-13.9562
guwa	-13.9562
▁kun	-13.9566
tesla	-13.9571
sakus	-13.9574
take	-13.9585
uồng	-13.9586
ndela	-13.9588
ros	-13.9588
gap	-13.9592
tiêm	-13.9592
▁dsa	-13.9617
gle	-13.9617
▁ut	-13.9632
tù	-13.9635
icc	-13.964
tặng	-13.9641
ober	-13.9643
▁gộ	-13.9653
lãi	-13.9665
▁slo	-13.9667
oze	-13.9673
▁abd	-13.9684
ami	-13.9685
xong	-13.9686
los	-13.9692
▁mata	-13.9694
sàn	-13.9696
▁ngưởng	-13.9696
nie	-13.9698
pyr	-13.9698
truy	-13.9699
▁nuố	-13.9701
▁dal	-13.9706
soft	-13.9707
▁maryel	-13.9708
ebe	-13.9715
nghèo	-13.972
barca	-13.9722
google	-13.9744
mel	-13.9751
issai	-13.9751
rsk	-13.9751
reis	-13.9755
mây	-13.9765
huyện	-13.9766
ridge	-13.9773
▁khă	-13.9774
mor	-13.9775
▁alta	-13.9778
vét	-13.9778
eerat	-13.9785
lẽ	-13.9789
vasc	-13.9789
▁aar	-13.9794
hôi	-13.9799
nvidia	-13.9805
dáng	-13.9812
italy	-13.9816
▁scotti	-13.982
link	-13.9823
▁corpu	-13.9825
muộn	-13.9826
irs	-13.9827
▁appl	-13.9831
ldo	-13.9832
▁fat	-13.9836
inaci	-13.9845
▁ita	-13.985
mã	-13.9853
già	-13.9854
▁bợ	-13.9857
▁soli	-13.9862
feij	-13.9867
kova	-13.9874
mỡ	-13.9882
pate	-13.9884
olympic	-13.9884
ruộng	-13.9887
▁agen	-13.9895
techin	-13.9895
niềm	-13.9896
fur	-13.9904
▁schu	-13.9905
▁ayo	-13.9906
aklan	-13.9907
▁yar	-13.9914
div	-13.9915
liner	-13.9915
▁bòn	-13.9916
byn	-13.992
ircu	-13.9929
hao	-13.9929
iraq	-13.9932
uối	-13.9941
dường	-13.9941
▁osk	-13.9942
▁waff	-13.9944
▁sale	-13.9944
bellingham	-13.9946
bền	-13.9949
▁mateo	-13.9949
thù	-13.9952
amil	-13.9952
▁tă	-13.9955
eis	-13.9966
nhắm	-13.9968
lis	-13.9968
rade	-13.9972
▁slov	-13.9973
▁alexandr	-13.998
gắm	-13.9981
dụ	-13.9986
ming	-13.9989
▁marle	-13.9994
stov	-13.9996
rkin	-13.9997
br	-14.0007
vinicius	-14.0011
gala	-14.0013
trầm	-14.0014
emer	-14.0016
come	-14.0021
llar	-14.003
meric	-14.0032
kaya	-14.0036
equi	-14.004
chênh	-14.0042
▁nhòa	-14.0042
ntino	-14.0042
hạt	-14.0047
achs	-14.0048
▁alm	-14.0048
wb	-14.0051
zan	-14.0056
▁khâ	-14.0056
uer	-14.0057
iễm	-14.0058
mphu	-14.0065
ủy	-14.0067
▁ran	-14.0071
▁fay	-14.0074
ream	-14.0075
elato	-14.0076
▁path	-14.0076
▁bala	-14.0077
tấm	-14.0078
nắm	-14.0079
kroos	-14.0083
ield	-14.0085
dah	-14.0087
tos	-14.0093
tine	-14.01
jor	-14.0103
▁rib	-14.0119
anner	-14.0121
▁tulu	-14.0127
dọn	-14.0131
giường	-14.0138
▁thàn	-14.0142
hee	-14.0143
rái	-14.0146
sỏi	-14.0152
chức	-14.0153
▁jorge	-14.0156
gord	-14.0156
▁endo	-14.0157
ved	-14.0158
▁add	-14.0163
aza	-14.0165
▁mesh	-14.0167
harv	-14.0169
for	-14.017
chatgpt	-14.0172
▁kati	-14.0174
van	-14.0175
ảy	-14.0178
jed	-14.0184
▁stre	-14.0186
▁sti	-14.0186
arki	-14.0189
gera	-14.0191
kers	-14.0198
rằng	-14.0201
arat	-14.0205
▁nicole	-14.0217
▁talks	-14.0217
▁cath	-14.0218
tez	-14.0218
▁stark	-14.0222
ibb	-14.0243
over	-14.0245
hon	-14.0246
drone	-14.0249
▁scho	-14.0254
lico	-14.0257
ndu	-14.0282
▁adel	-14.0283
rkac	-14.0286
uav	-14.0289
drop	-14.0291
arbec	-14.0294
abet	-14.0297
đằng	-14.0299
play	-14.03
▁exi	-14.03
▁clo	-14.0301
enki	-14.0301
dội	-14.0304
tân	-14.0313
ort	-14.0317
íp	-14.0323
▁cod	-14.0334
dalo	-14.0336
kiệt	-14.0348
▁walk	-14.0348
▁rama	-14.0361
hiệt	-14.0383
▁et	-14.0388
▁alq	-14.0394
delhi	-14.0395
giọng	-14.0397
samsung	-14.0398
▁foun	-14.0414
▁palo	-14.0415
gallo	-14.042
cướp	-14.042
▁dor	-14.0433
cúng	-14.0434
bridge	-14.0438
▁rei	-14.044
dẹp	-14.044
xả	-14.045
alexander	-14.0452
ista	-14.0454
ural	-14.0457
▁đượ	-14.0464
▁tắn	-14.0467
▁hau	-14.0471
bolli	-14.0472
houthi	-14.0475
green	-14.0476
▁tob	-14.0479
▁vù	-14.0496
cuộn	-14.0498
develop	-14.05
stero	-14.0501
hài	-14.0506
ngoạn	-14.0508
games	-14.0513
exi	-14.0516
dĩ	-14.0517
george	-14.052
obe	-14.0523
tsar	-14.0524
isa	-14.0531
hisa	-14.0535
old	-14.0535
rida	-14.0535
phơi	-14.0539
atar	-14.0539
▁rada	-14.054
dệt	-14.054
▁lun	-14.0547
sale	-14.0555
kota	-14.0556
lẩu	-14.0561
hót	-14.0569
chúc	-14.0572
ethe	-14.0572
▁yue	-14.0573
food	-14.0575
wings	-14.0575
cứng	-14.0576
đè	-14.0576
mike	-14.0581
▁thala	-14.0583
benz	-14.0586
copa	-14.06
trừng	-14.06
salih	-14.0601
felt	-14.0602
lob	-14.0605
mông	-14.0611
▁gl	-14.0618
mandel	-14.0619
ins	-14.0622
arte	-14.0623
mù	-14.0626
tov	-14.0628
wend	-14.0631
mực	-14.0631
▁india	-14.0633
▁cami	-14.0637
▁chuyê	-14.0638
token	-14.0641
erc	-14.0642
vênh	-14.0649
walker	-14.0652
als	-14.0654
vật	-14.0656
sung	-14.0662
kyush	-14.0663
hở	-14.0664
tandoor	-14.0664
lisso	-14.0666
casper	-14.0668
ferrari	-14.0669
fuku	-14.0669
lewis	-14.0671
married	-14.0671
success	-14.0672
front	-14.0673
thâm	-14.0674
nichols	-14.0676
mpo	-14.068
robo	-14.0683
emia	-14.0685
like	-14.0685
rien	-14.0685
lambert	-14.0686
zone	-14.0686
oche	-14.0687
rist	-14.0687
kép	-14.0688
itsch	-14.0689
hel	-14.0691
elatin	-14.0693
ares	-14.0695
penny	-14.0699
too	-14.0703
eru	-14.0703
megha	-14.0704
series	-14.0704
▁ră	-14.0707
sergi	-14.0707
mộc	-14.0711
choáng	-14.0715
▁mâ	-14.0717
bout	-14.0717
logic	-14.072
unen	-14.0721
zur	-14.0722
ladi	-14.0723
bike	-14.0725
yuso	-14.0729
ovi	-14.0731
bẻ	-14.0731
rik	-14.0733
news	-14.0739
omina	-14.0744
▁karol	-14.075
nen	-14.0751
roberts	-14.0751
dối	-14.0755
kari	-14.0756
▁sele	-14.0757
tol	-14.0757
baki	-14.0758
enin	-14.0762
gps	-14.0763
thur	-14.0764
arce	-14.0767
lmar	-14.0769
aryna	-14.0773
mosh	-14.0779
hê	-14.0779
ghê	-14.0794
mũ	-14.0798
nati	-14.0799
eno	-14.0801
▁sapp	-14.0804
cape	-14.0807
iii	-14.081
▁belo	-14.0819
nishi	-14.0832
yuki	-14.0834
▁să	-14.0834
awe	-14.0835
eau	-14.0843
▁stephane	-14.0852
mex	-14.0856
▁ald	-14.0858
thợ	-14.0858
▁mars	-14.0867
zambi	-14.0867
august	-14.0868
urat	-14.0872
blo	-14.0879
pont	-14.0883
lson	-14.0891
jay	-14.0892
hấn	-14.0897
tambo	-14.0898
pop	-14.0906
▁nasu	-14.0907
rego	-14.0912
stine	-14.0912
kens	-14.0915
azaru	-14.0916
vạ	-14.092
phun	-14.0924
▁guil	-14.0924
fernand	-14.0926
▁fen	-14.0928
▁arti	-14.0932
jarr	-14.0939
ips	-14.0943
▁corni	-14.0943
▁hidd	-14.0943
brid	-14.0943
omyr	-14.0943
▁dorm	-14.0945
vers	-14.0947
▁shaba	-14.0955
▁suphan	-14.0955
▁nass	-14.0958
fran	-14.0959
jum	-14.0961
▁padd	-14.0962
soi	-14.0963
▁rela	-14.0963
chef	-14.0964
otti	-14.0966
tami	-14.0968
▁xuâ	-14.0968
eti	-14.0969
robi	-14.097
bc	-14.097
zel	-14.0973
▁điể	-14.0973
orso	-14.0974
ght	-14.0975
ngo	-14.0986
▁dol	-14.0991
▁metropol	-14.0995
suke	-14.1
▁cụp	-14.1003
yche	-14.1011
ẳn	-14.1015
auld	-14.1016
xây	-14.1018
▁whi	-14.1019
egon	-14.102
▁yann	-14.1021
▁corr	-14.1021
▁microf	-14.1033
milia	-14.1035
▁vươ	-14.1036
cạn	-14.1037
kaz	-14.1041
rak	-14.1043
▁bsc	-14.1048
▁hiwatar	-14.1053
▁tenzi	-14.1054
▁caffe	-14.1058
▁frei	-14.1059
▁dươ	-14.106
thư	-14.106
erick	-14.1064
▁millenni	-14.1065
▁bet	-14.1065
ếu	-14.1067
imoda	-14.1067
nghiệp	-14.1068
ollywood	-14.1068
ladimir	-14.1069
▁automo	-14.107
▁pharm	-14.1071
▁honsh	-14.1072
▁rè	-14.1072
▁julia	-14.1072
▁dar	-14.1072
▁norman	-14.1073
vf	-14.1073
▁tuâ	-14.1075
▁christoph	-14.1076
▁scot	-14.1077
▁bện	-14.1078
▁valentin	-14.1078
▁mezquita	-14.1079
▁mikhail	-14.108
▁advan	-14.108
lippines	-14.1081
orgio	-14.1081
gnus	-14.1082
▁guvnor	-14.1082
▁massachus	-14.1082
▁ricciardorb	-14.1082
▁albonwilliams	-14.1082
▁guanyusauber	-14.1082
▁huffingtonpost	-14.1082
corkage	-14.1082
obacter	-14.1082
realdonaldtrump	-14.1082
sargeantwilliams	-14.1082
technoking	-14.1082
▁adventure	-14.1082
▁airbnb	-14.1082
▁almokhallalati	-14.1082
▁anxiety	-14.1082
▁apurimac	-14.1082
▁barefoot	-14.1082
▁bennett	-14.1082
▁bottassauber	-14.1082
▁celestina	-14.1082
▁churros	-14.1082
▁cossman	-14.1082
▁doctrine	-14.1082
▁donestk	-14.1082
▁gamveverse	-14.1082
▁gaslyalpine	-14.1082
▁genevieve	-14.1082
▁golubev	-14.1082
▁goulash	-14.1082
▁gutierrez	-14.1082
▁hulkenberghaas	-14.1082
▁industri	-14.1082
▁jaroensak	-14.1082
▁kovalev	-14.1082
▁kyunggi	-14.1082
▁leucotomos	-14.1082
▁magnussenhaas	-14.1082
▁mantattan	-14.1082
▁mendilibar	-14.1082
▁mikke	-14.1082
▁mindanao	-14.1082
▁mingachos	-14.1082
▁morpheus	-14.1082
▁northampton	-14.1082
▁oconalpine	-14.1082
▁opinion	-14.1082
▁oxytocin	-14.1082
▁paraíso	-14.1082
▁pqsc	-14.1082
▁rhossil	-14.1082
▁roppongi	-14.1082
▁sagaftra	-14.1082
▁satterfield	-14.1082
▁schaedel	-14.1082
▁shichirin	-14.1082
▁sicarrier	-14.1082
▁sintético	-14.1082
▁solidcore	-14.1082
▁yesterday	-14.1082
▁zogby	-14.1082
▁aurora	-14.1082
▁guanyu	-14.1082
▁retinoid	-14.1082
▁giêsu	-14.1082
▁hydrocarbon	-14.1082
▁lithium	-14.1082
▁pierreemile	-14.1082
▁rikkei	-14.1082
▁stamford	-14.1082
▁taoyuan	-14.1082
▁tmđt	-14.1082
▁tranghienlee	-14.1082
▁tsunodarb	-14.1082
▁yojong	-14.1082
▁century	-14.1082
▁coppola	-14.1082
▁gansevoort	-14.1082
▁livingston	-14.1082
▁pongour	-14.1082
▁shigatse	-14.1082
cruyff	-14.1082
▁alessandro	-14.1082
▁holiday	-14.1082
▁twinrix	-14.1082
discovery	-14.1082
uschw	-14.1082
▁bronx	-14.1082
▁channel	-14.1082
▁jnrferrari	-14.1082
▁lucknow	-14.1082
▁machine	-14.1082
▁palmilla	-14.1082
▁savill	-14.1082
▁versailles	-14.1082
increase	-14.1082
▁agassi	-14.1082
▁sparrow	-14.1082
buggy	-14.1082
dtrum	-14.1082
▁murasaki	-14.1082
▁piastrimclaren	-14.1082
▁leclercferrari	-14.1082
▁custom	-14.1082
▁norrismclaren	-14.1082
▁marsden	-14.1082
▁russellmercedes	-14.1082
▁offline	-14.1082
▁tdtt	-14.1082
▁warwick	-14.1082
▁wechat	-14.1082
▁aucoustic	-14.1082
▁chillies	-14.1082
▁changtse	-14.1082
▁rojas	-14.1082
▁crypto	-14.1082
purchase	-14.1082
▁nissan	-14.1082
because	-14.1082
▁enquire	-14.1082
▁exxon	-14.1082
▁turkey	-14.1082
▁fibrin	-14.1082
▁listening	-14.1082
▁bulhe	-14.1082
▁small	-14.1082
wijn	-14.1082
▁klein	-14.1082
▁mathias	-14.1082
▁silic	-14.1082
▁bokor	-14.1082
▁dopamin	-14.1082
▁summer	-14.1082
▁giựt	-14.1082
▁federighi	-14.1082
▁prcs	-14.1082
hamiltonmercedes	-14.1082
▁southend	-14.1082
▁felipe	-14.1083
▁crush	-14.1083
▁asperger	-14.1083
▁robyn	-14.1083
listen	-14.1083
▁draco	-14.1083
▁hornet	-14.1083
ounis	-14.1083
ntwort	-14.1083
▁sultan	-14.1083
▁nishiyama	-14.1083
alencia	-14.1083
▁monoxi	-14.1083
▁voice	-14.1083
hetti	-14.1083
▁chasov	-14.1083
ethyl	-14.1083
mikhailov	-14.1083
▁phewa	-14.1083
▁winter	-14.1083
▁oxf	-14.1084
▁abdel	-14.1084
▁oppo	-14.1084
orient	-14.1084
martre	-14.1084
▁christophe	-14.1084
▁death	-14.1084
▁ozil	-14.1084
▁gautam	-14.1084
▁cntraveler	-14.1084
▁schul	-14.1084
troz	-14.1084
▁rhode	-14.1084
▁caribbean	-14.1084
▁actun	-14.1084
▁brewer	-14.1084
▁brest	-14.1084
▁magnus	-14.1085
rayuth	-14.1085
▁barret	-14.1085
hòng	-14.1085
message	-14.1085
▁cabinet	-14.1085
▁aws	-14.1086
▁partic	-14.1086
▁serhi	-14.1086
vote	-14.1086
▁culture	-14.1086
ehub	-14.1087
▁volod	-14.1087
finan	-14.1087
▁evanna	-14.1087
▁hallman	-14.1087
▁wallace	-14.1087
▁glazer	-14.1088
▁ritzca	-14.1088
▁helic	-14.1088
▁ranking	-14.1088
knowle	-14.1088
▁denise	-14.1088
▁siena	-14.1089
▁himal	-14.1089
baldi	-14.1089
▁domain	-14.1089
commerc	-14.1089
▁modul	-14.1089
euro	-14.1089
▁vinacon	-14.109
▁mckin	-14.109
▁voices	-14.1091
▁shiga	-14.1091
ssier	-14.1092
▁quinn	-14.1092
▁production	-14.1092
nnaru	-14.1092
▁thỏi	-14.1092
search	-14.1092
qué	-14.1092
▁alessa	-14.1093
▁margar	-14.1093
ywood	-14.1093
▁caldera	-14.1093
folia	-14.1094
▁collins	-14.1094
▁zelen	-14.1094
▁dalei	-14.1095
▁velas	-14.1096
ndara	-14.1096
sourc	-14.1097
▁gle	-14.1097
▁levels	-14.1098
▁hcmc	-14.1098
▁xochi	-14.1098
▁vlog	-14.1098
▁matic	-14.1099
gege	-14.11
charlie	-14.11
ichola	-14.11
etacar	-14.11
▁fit	-14.1101
▁laojun	-14.1101
▁ramesh	-14.1101
lastic	-14.1101
▁sufa	-14.1102
▁tahir	-14.1102
▁kuwa	-14.1103
ndroi	-14.1103
▁elasti	-14.1103
▁east	-14.1103
▁abdu	-14.1104
▁vasco	-14.1104
amot	-14.1104
zha	-14.1104
▁acca	-14.1105
▁canad	-14.1105
sympho	-14.1105
▁magno	-14.1106
▁arenal	-14.1107
▁lahia	-14.1107
▁strip	-14.1108
ytheri	-14.1109
lactic	-14.1109
▁paol	-14.1109
▁grenad	-14.111
icillin	-14.111
▁goat	-14.111
▁crime	-14.1112
▁ukrain	-14.1113
uple	-14.1113
▁laden	-14.1114
▁palm	-14.1114
▁muerto	-14.1114
▁iberian	-14.1115
▁ponz	-14.1115
▁caucas	-14.1115
gusta	-14.1116
enstein	-14.1116
aluga	-14.1117
stance	-14.112
▁gwang	-14.112
▁vtv	-14.1122
bash	-14.1123
▁spark	-14.1123
▁keir	-14.1124
acetam	-14.1125
▁teu	-14.1125
▁rep	-14.1126
▁kanda	-14.1126
tures	-14.1126
phái	-14.1126
▁pavil	-14.1127
▁beit	-14.1128
gros	-14.1129
▁maestr	-14.113
▁oreg	-14.113
▁trevi	-14.1131
▁tởm	-14.1131
llr	-14.1131
ưỡn	-14.1133
▁gilbe	-14.1133
▁clement	-14.1133
ste	-14.1134
agil	-14.1135
▁just	-14.1136
smet	-14.1137
novic	-14.1138
louse	-14.1138
▁stry	-14.1139
tcom	-14.114
▁barry	-14.1141
pment	-14.1144
▁cholest	-14.1146
▁shigeno	-14.1146
▁herb	-14.1146
▁retr	-14.1146
▁scarbo	-14.1148
▁creati	-14.1148
▁xoải	-14.1148
▁prote	-14.115
eval	-14.115
▁kinz	-14.1152
arrow	-14.1154
gins	-14.1155
▁conrado	-14.1155
suf	-14.1159
▁pandu	-14.1159
jair	-14.116
▁hamid	-14.116
▁bike	-14.1161
erp	-14.1161
vita	-14.1162
▁tank	-14.1163
▁ado	-14.1164
▁ascen	-14.1165
rshkov	-14.1168
▁belle	-14.1171
▁hbc	-14.1171
▁excel	-14.1172
kiện	-14.1174
▁phalan	-14.1174
▁fis	-14.1174
arlt	-14.1174
▁igna	-14.1176
tches	-14.1176
▁sandal	-14.1176
▁adams	-14.1182
▁hirs	-14.1182
▁molin	-14.1183
▁ups	-14.1186
nuka	-14.1187
vax	-14.119
ole	-14.119
▁lỏn	-14.119
forest	-14.1193
aram	-14.1193
xyz	-14.1193
▁mode	-14.1194
drat	-14.1196
icat	-14.1199
▁pont	-14.1199
once	-14.1202
▁ronin	-14.1202
aldin	-14.1203
ccess	-14.1206
finit	-14.1206
▁hanno	-14.1207
sauveur	-14.1209
otts	-14.121
▁kanto	-14.1211
oạc	-14.1215
odo	-14.1215
▁pharmacia	-14.1215
▁nava	-14.1216
gawa	-14.1216
▁honey	-14.1227
▁hayashi	-14.1228
brahim	-14.1231
rappe	-14.1231
▁opmart	-14.1231
phra	-14.1231
wsc	-14.1232
▁poor	-14.1233
finna	-14.1238
▁touch	-14.1242
▁antho	-14.1246
fel	-14.1249
▁chửng	-14.125
▁ekka	-14.1251
▁amaz	-14.1252
▁ampere	-14.1253
▁possible	-14.1255
chabur	-14.1257
locos	-14.1259
điên	-14.1261
▁every	-14.1262
▁beca	-14.1262
▁jian	-14.1264
▁kristian	-14.1264
tics	-14.1265
negi	-14.1266
nghị	-14.1266
deln	-14.1267
▁retina	-14.1269
▁hemoglobin	-14.1269
eferi	-14.1269
▁leader	-14.127
▁development	-14.1271
yrs	-14.1273
▁narayani	-14.1274
▁maker	-14.1276
▁ailao	-14.1276
▁vùn	-14.1277
▁simp	-14.1281
▁galler	-14.1282
rossi	-14.1282
▁risa	-14.1283
kno	-14.1285
isabe	-14.1291
anapa	-14.1295
nico	-14.1295
▁ghos	-14.1296
▁daily	-14.1296
lap	-14.1299
bunde	-14.13
▁sas	-14.1301
▁corre	-14.1304
▁butt	-14.1311
▁kesle	-14.1313
ơng	-14.1314
pet	-14.1314
▁mes	-14.1314
▁herman	-14.1315
gọi	-14.1319
shopper	-14.1325
▁lil	-14.1328
sch	-14.1328
lách	-14.133
chuk	-14.133
▁esport	-14.133
▁live	-14.1334
▁sền	-14.1335
▁scr	-14.1335
▁fol	-14.1335
▁suphanan	-14.1339
▁copp	-14.1341
ghẽ	-14.1345
reef	-14.1347
ollan	-14.1348
arsen	-14.135
atta	-14.1352
▁tộ	-14.1357
ukai	-14.1358
▁nghê	-14.1359
▁flem	-14.1361
edic	-14.1361
nomy	-14.1368
pago	-14.1369
ssee	-14.1369
ences	-14.1369
▁ponti	-14.1369
▁paj	-14.137
wain	-14.1371
▁kaba	-14.1371
▁lill	-14.1372
rơ	-14.1372
zalel	-14.1375
gof	-14.1376
▁eber	-14.1377
send	-14.1383
uw	-14.1383
dome	-14.1388
▁hous	-14.1388
ynth	-14.1388
▁mona	-14.1389
elling	-14.1392
▁huyệ	-14.1392
mbia	-14.1394
ock	-14.1394
upert	-14.1402
tracht	-14.1406
▁uman	-14.1408
▁coro	-14.1408
saku	-14.141
▁palan	-14.1411
▁asim	-14.1411
erton	-14.1414
▁freud	-14.1416
▁cove	-14.1422
▁terr	-14.1425
ewoo	-14.1426
▁gía	-14.1427
▁bis	-14.1428
unak	-14.144
band	-14.1441
atm	-14.1444
pl	-14.1448
ossa	-14.1449
▁anse	-14.145
lunge	-14.1455
▁maga	-14.1456
edal	-14.1458
ienne	-14.1458
anci	-14.1458
hế	-14.1459
rl	-14.1461
rợn	-14.1462
oyama	-14.1466
gee	-14.1468
rump	-14.1468
cale	-14.1469
taran	-14.1469
▁hama	-14.1472
▁shaban	-14.1474
isaya	-14.1478
bog	-14.1478
▁vide	-14.148
kshas	-14.1482
▁rey	-14.1483
vd	-14.1486
▁spag	-14.1486
phu	-14.1487
▁youn	-14.1487
▁hide	-14.1488
zin	-14.1489
eto	-14.1489
nông	-14.1491
rgen	-14.1492
▁tarta	-14.1492
▁fia	-14.1492
▁bura	-14.1495
▁kav	-14.15
hứng	-14.15
yuan	-14.1502
▁buf	-14.1505
▁aire	-14.151
bắc	-14.1515
nsylvania	-14.1516
jda	-14.1519
ancas	-14.1519
▁vac	-14.1523
nhạt	-14.1524
tian	-14.1533
duli	-14.1534
trạng	-14.1534
▁lep	-14.1535
▁alsh	-14.1539
▁aids	-14.1543
▁nep	-14.1551
avig	-14.1552
▁rơ	-14.1555
bdu	-14.1555
▁ngọa	-14.1555
singa	-14.1556
▁naring	-14.1557
▁seong	-14.156
▁terrac	-14.1561
kế	-14.1565
▁zone	-14.1574
iivsk	-14.1575
▁musi	-14.1576
▁netz	-14.1578
▁brain	-14.1578
ierra	-14.1582
▁scand	-14.1587
▁bal	-14.1596
▁goal	-14.1598
▁amino	-14.1602
roten	-14.1602
curi	-14.1606
lazer	-14.1606
ess	-14.161
acht	-14.1613
eiber	-14.1618
hack	-14.1619
▁chev	-14.162
▁massa	-14.1629
porth	-14.163
▁harrier	-14.163
auli	-14.1631
ttle	-14.1634
gì	-14.164
▁kota	-14.1647
shou	-14.165
lian	-14.1651
mp	-14.1652
catell	-14.1656
▁salih	-14.1659
▁fuj	-14.1661
kali	-14.1674
hồng	-14.1674
hõm	-14.1676
phạm	-14.168
▁raven	-14.1682
olpe	-14.1689
uji	-14.1689
igl	-14.169
annie	-14.1692
tử	-14.1694
ngang	-14.1695
zos	-14.1696
uccin	-14.1699
eige	-14.1699
araju	-14.17
mun	-14.1708
kazu	-14.1709
▁coli	-14.1712
egal	-14.1712
▁appa	-14.1714
hoyo	-14.1714
nica	-14.1715
▁azf	-14.1717
▁gừ	-14.1721
rys	-14.1722
xco	-14.1726
▁festiv	-14.1728
cup	-14.1733
▁nok	-14.1745
have	-14.1748
▁phèo	-14.1749
▁brew	-14.1751
lavi	-14.1758
▁jing	-14.177
helin	-14.1771
▁ahl	-14.1771
▁soco	-14.1776
▁grave	-14.1778
chiang	-14.1778
nfant	-14.1779
▁vega	-14.178
▁nhự	-14.1781
▁nikola	-14.1783
củng	-14.1784
sama	-14.1789
igur	-14.1792
▁pomp	-14.1793
▁novi	-14.1793
uro	-14.1801
ukus	-14.1802
▁cồ	-14.1802
cấp	-14.1803
wauke	-14.1806
ãn	-14.1807
▁cris	-14.1809
bele	-14.1812
uen	-14.1813
anila	-14.1816
lessa	-14.1816
▁toá	-14.1816
▁ral	-14.1817
▁collis	-14.1821
▁xiê	-14.1822
▁ural	-14.1827
othen	-14.183
achira	-14.1834
▁eas	-14.1835
nới	-14.1838
sov	-14.1838
▁castr	-14.1838
▁ev	-14.1841
nship	-14.1859
tố	-14.1859
nchuk	-14.186
olson	-14.1864
hava	-14.1866
suki	-14.1868
▁milwa	-14.1876
uyệt	-14.1877
ingston	-14.1881
pd	-14.1882
kon	-14.1883
alej	-14.1885
izz	-14.1889
▁mĩ	-14.189
rizo	-14.1891
toria	-14.1897
event	-14.19
▁wing	-14.1904
oppa	-14.1909
▁sỏ	-14.1912
▁bolli	-14.1913
▁prat	-14.1914
▁yangt	-14.1915
sông	-14.192
stea	-14.1927
eball	-14.1932
▁schen	-14.194
▁start	-14.1942
▁eve	-14.1943
inic	-14.1946
▁thuâ	-14.1947
▁jum	-14.1953
rim	-14.1957
ied	-14.1959
inne	-14.1961
eiss	-14.1963
▁wallac	-14.1965
▁atkins	-14.197
rab	-14.1984
▁sác	-14.1987
igua	-14.1988
mut	-14.1993
▁mir	-14.1994
▁esse	-14.2001
▁quyê	-14.2001
jord	-14.2003
▁bcm	-14.2004
domi	-14.201
mập	-14.2016
cand	-14.2021
pressin	-14.2021
icha	-14.2022
mồi	-14.2022
▁winst	-14.2028
▁dă	-14.203
lins	-14.2032
ndy	-14.2032
she	-14.2045
bad	-14.2049
cetime	-14.205
bunga	-14.2076
▁fus	-14.2079
ore	-14.2081
phong	-14.2083
jev	-14.209
shko	-14.2092
▁bsck	-14.2093
▁brandi	-14.2094
▁jorgen	-14.2102
erem	-14.2105
ollah	-14.2106
iech	-14.211
▁â	-14.2112
▁domini	-14.2115
hục	-14.2128
eder	-14.2129
▁pot	-14.213
▁brya	-14.213
oma	-14.213
▁rec	-14.2132
erber	-14.2134
▁lườn	-14.2134
atch	-14.2136
▁toy	-14.2142
ướm	-14.215
rah	-14.2153
▁shiha	-14.2158
rone	-14.216
ryle	-14.2164
▁paste	-14.2178
▁yoshino	-14.2187
hoi	-14.2201
lik	-14.2205
▁ahar	-14.2206
dge	-14.2223
mat	-14.2227
▁lion	-14.2235
napoli	-14.2237
▁fd	-14.2241
▁param	-14.2242
bili	-14.2249
▁năn	-14.2252
▁aster	-14.2254
▁vồ	-14.2263
azak	-14.2269
chain	-14.2271
▁tou	-14.2272
asem	-14.2278
▁ố	-14.2282
▁sanc	-14.2283
agu	-14.2284
fj	-14.2284
▁dow	-14.2285
▁wings	-14.2287
▁karoli	-14.2291
quăng	-14.2295
evol	-14.2302
luff	-14.2303
yếu	-14.2303
▁fel	-14.2303
kip	-14.2304
alja	-14.2305
rm	-14.2312
apur	-14.2322
▁whe	-14.233
onstan	-14.2335
lorent	-14.2339
▁lỏ	-14.2345
tres	-14.2352
kow	-14.2353
ipper	-14.2353
▁beti	-14.2366
axit	-14.2373
ci	-14.2376
ueh	-14.2377
yak	-14.2383
▁pie	-14.2391
dip	-14.2392
onora	-14.2394
elas	-14.2398
ysse	-14.2398
meira	-14.2398
assi	-14.2401
▁adr	-14.2403
▁deni	-14.2417
icket	-14.2417
noy	-14.2433
▁mono	-14.2448
mans	-14.2451
witch	-14.2454
▁tana	-14.2463
▁ski	-14.2465
bur	-14.2467
uần	-14.2467
▁nicol	-14.247
▁pto	-14.2473
▁lùn	-14.2478
heide	-14.2484
rovo	-14.2509
yto	-14.251
▁kah	-14.2517
lung	-14.2517
lion	-14.2522
▁melina	-14.2523
lona	-14.2528
gold	-14.2533
▁bern	-14.2538
rb	-14.254
mận	-14.2544
phủ	-14.255
arian	-14.255
ễu	-14.2554
sl	-14.2555
▁bậ	-14.2556
hè	-14.256
hz	-14.2563
gương	-14.2565
liba	-14.2565
manche	-14.2576
wald	-14.2578
▁cort	-14.2586
▁nhạ	-14.259
▁xướ	-14.2594
gs	-14.2595
hebe	-14.2595
welc	-14.2595
▁report	-14.2596
adha	-14.2597
phen	-14.26
ipr	-14.2602
okina	-14.2606
pay	-14.261
citi	-14.2611
▁hungar	-14.2613
hé	-14.2616
rce	-14.2622
▁edi	-14.2623
▁aka	-14.2624
ehor	-14.2632
▁chuô	-14.2639
▁đóm	-14.2642
▁chiền	-14.2644
levin	-14.2654
▁light	-14.2656
ecta	-14.2659
▁pota	-14.266
▁muse	-14.2661
thuận	-14.2666
alani	-14.2672
poli	-14.2677
▁feed	-14.2678
rime	-14.2684
▁nea	-14.2688
cấy	-14.2691
▁lind	-14.2692
hak	-14.2692
pers	-14.2696
▁cou	-14.2705
fet	-14.271
eux	-14.2718
lutin	-14.2721
▁coas	-14.2721
▁trác	-14.2725
ndmar	-14.273
cre	-14.2743
▁phới	-14.2748
▁lgm	-14.275
▁ses	-14.2759
▁dông	-14.2761
ebel	-14.2764
inium	-14.2766
▁mcdo	-14.2774
lady	-14.2776
▁tengg	-14.2776
teras	-14.2777
▁agm	-14.2777
ơm	-14.2779
inten	-14.2779
naura	-14.2781
rathon	-14.2787
getti	-14.2798
mmen	-14.28
alibu	-14.2802
moria	-14.2805
▁action	-14.2815
ík	-14.2817
anov	-14.2818
dela	-14.282
▁swa	-14.2821
eda	-14.2823
danger	-14.2826
▁dia	-14.2833
▁mck	-14.2846
▁kị	-14.2848
slav	-14.2849
kee	-14.2851
ujo	-14.2855
▁gart	-14.2858
oda	-14.2865
mus	-14.2867
lp	-14.2867
itor	-14.2881
igeni	-14.2889
lite	-14.2892
antes	-14.2901
nhật	-14.2903
eute	-14.291
ngko	-14.2912
him	-14.2914
pen	-14.2923
tran	-14.2934
▁ile	-14.2937
▁ino	-14.2939
eag	-14.294
▁ele	-14.2945
stad	-14.2946
kaw	-14.295
lfi	-14.2954
▁bok	-14.2955
acchi	-14.2958
arman	-14.2958
êng	-14.2958
▁gree	-14.2979
▁wan	-14.2982
exa	-14.2982
atho	-14.2982
naue	-14.2983
ona	-14.2983
▁dugg	-14.2984
▁marr	-14.2987
▁hida	-14.2989
tshir	-14.3
▁mề	-14.3008
nhằm	-14.3008
lộ	-14.301
lena	-14.3012
abus	-14.3012
▁amste	-14.3019
tưởng	-14.302
zil	-14.3021
odi	-14.3025
urri	-14.3026
▁myla	-14.3032
hri	-14.3033
▁es	-14.304
▁nong	-14.304
▁ayma	-14.3047
▁senso	-14.305
lsen	-14.305
▁ear	-14.3051
gus	-14.3059
▁rever	-14.3062
▁vara	-14.308
iip	-14.308
vel	-14.3085
ivan	-14.3087
▁orenbu	-14.3089
erma	-14.3091
oáng	-14.3092
▁qld	-14.3094
▁too	-14.31
▁mọn	-14.3105
aryn	-14.3106
▁digi	-14.3113
naur	-14.3115
▁pon	-14.3118
ruct	-14.3119
▁hard	-14.3124
conn	-14.3127
get	-14.3133
ún	-14.3145
curt	-14.3166
oro	-14.3168
apak	-14.3181
ept	-14.3191
▁obe	-14.3192
kob	-14.3195
há	-14.3199
anti	-14.3199
tto	-14.321
eson	-14.3214
▁ct	-14.3219
▁canc	-14.3237
pose	-14.324
mpos	-14.3244
▁heid	-14.3246
▁gans	-14.3249
rban	-14.3249
▁dà	-14.3264
kỹ	-14.3271
deir	-14.3276
shik	-14.3283
ates	-14.3285
▁kante	-14.3289
eddi	-14.3293
▁rani	-14.3294
biên	-14.3298
canh	-14.3302
tract	-14.3303
gh	-14.3311
nk	-14.3314
▁comb	-14.3325
saki	-14.3334
▁hino	-14.3335
▁vư	-14.3337
tou	-14.3342
epa	-14.3344
dom	-14.3362
erlin	-14.3375
lash	-14.3389
▁parag	-14.3389
▁nồ	-14.34
▁terra	-14.3406
▁nila	-14.3406
▁amr	-14.3408
▁mandar	-14.3416
lé	-14.3418
hoàng	-14.3423
khoản	-14.3443
app	-14.3445
hoạch	-14.3447
meta	-14.3448
xét	-14.3449
▁khom	-14.345
ieber	-14.3451
uchin	-14.3459
▁tell	-14.3464
rén	-14.3467
ther	-14.3467
uyê	-14.347
omat	-14.347
leba	-14.3471
▁guer	-14.3471
bah	-14.3481
sắc	-14.3482
▁rự	-14.3482
▁hear	-14.3482
soc	-14.3483
rích	-14.3496
eiga	-14.3499
edge	-14.3509
▁chù	-14.3524
▁magn	-14.3526
▁law	-14.3536
azer	-14.3539
lửa	-14.3543
trắng	-14.3543
akaya	-14.3546
romo	-14.3553
ueb	-14.3562
▁trư	-14.3566
▁kou	-14.3581
cur	-14.3581
íu	-14.3585
ipane	-14.3589
jom	-14.3604
higa	-14.3609
▁ash	-14.3626
hoang	-14.3632
ráng	-14.3633
ood	-14.3642
ninh	-14.3644
▁spee	-14.3653
analo	-14.3654
▁jov	-14.3659
anji	-14.3664
▁skin	-14.3668
geran	-14.3674
▁nhũn	-14.3682
nue	-14.3685
▁mộtchiếc	-14.3691
auber	-14.3693
pak	-14.3703
▁jal	-14.3705
▁ope	-14.3708
▁saam	-14.3708
rata	-14.3714
canter	-14.3715
bio	-14.372
▁qian	-14.3723
▁bum	-14.3726
▁player	-14.3728
drey	-14.3728
bioti	-14.3744
buộc	-14.3755
cake	-14.3763
thì	-14.3767
nặng	-14.3774
ail	-14.3803
▁fama	-14.3803
upl	-14.3806
iere	-14.381
iva	-14.3813
mis	-14.383
▁harr	-14.3848
osy	-14.385
dun	-14.3856
zab	-14.3856
▁sach	-14.3856
ronin	-14.3868
▁mind	-14.387
glute	-14.3871
củ	-14.3876
usz	-14.3877
bitze	-14.3878
azim	-14.3888
đào	-14.3889
▁ukra	-14.389
rác	-14.3895
đảm	-14.3895
hed	-14.3898
▁đườ	-14.3903
harley	-14.3903
nja	-14.3907
llo	-14.3911
amma	-14.3927
▁siber	-14.3955
▁keng	-14.3956
▁eur	-14.3963
▁harm	-14.3964
rí	-14.3966
yoni	-14.3969
adol	-14.3972
dina	-14.3973
eane	-14.3974
▁rost	-14.3975
ouli	-14.398
iton	-14.3981
▁grig	-14.3982
ea	-14.3983
▁nat	-14.3995
▁noh	-14.3998
adhya	-14.3999
giành	-14.4009
rj	-14.4012
nhiệt	-14.4015
▁ligu	-14.4016
chụp	-14.4018
erno	-14.4022
▁ngẩ	-14.4025
ngưng	-14.4042
xung	-14.4043
▁schil	-14.4048
▁ous	-14.4051
▁ros	-14.4055
ked	-14.4055
▁put	-14.406
acio	-14.4061
hếch	-14.4061
api	-14.4061
liff	-14.4066
▁soma	-14.4081
lấy	-14.4089
ezze	-14.4097
▁mằn	-14.4099
ason	-14.4099
baka	-14.4101
▁cob	-14.4106
atrio	-14.4115
▁zaku	-14.4119
▁lilia	-14.4126
tina	-14.4126
asa	-14.4128
apana	-14.4129
▁maru	-14.413
anak	-14.4132
▁chernom	-14.4132
cream	-14.4133
lten	-14.4136
giả	-14.415
▁oh	-14.4172
▁cog	-14.4176
ndor	-14.4177
▁aga	-14.4181
iel	-14.4187
▁cl	-14.4195
pack	-14.422
hor	-14.4224
▁seo	-14.4226
sé	-14.4228
▁haz	-14.4228
hman	-14.4233
▁with	-14.4234
atechin	-14.4245
hẻ	-14.4252
▁meli	-14.4256
▁vẩn	-14.4263
condi	-14.4264
hám	-14.4267
ean	-14.4279
pert	-14.4295
odge	-14.4303
▁pavl	-14.4311
here	-14.4313
rez	-14.4331
arais	-14.4332
rro	-14.4346
raga	-14.4353
ich	-14.4358
eu	-14.4371
hụt	-14.438
ifig	-14.4383
ect	-14.4386
▁ferre	-14.4389
gram	-14.4409
▁ann	-14.4409
comba	-14.4426
thủy	-14.4434
ig	-14.4435
onne	-14.4435
▁carboni	-14.4446
hạm	-14.4449
▁bự	-14.4451
open	-14.4452
litv	-14.4465
ator	-14.4468
toán	-14.4478
ae	-14.4479
aga	-14.4493
lce	-14.4503
▁ah	-14.4512
erck	-14.4513
akashi	-14.4516
vực	-14.4516
▁cafein	-14.4521
góp	-14.4522
▁cros	-14.4526
▁kristen	-14.4527
fell	-14.4528
▁alb	-14.4538
▁boy	-14.4544
▁cart	-14.4548
▁call	-14.4551
":	-14.4554
posit	-14.4562
shima	-14.4583
enti	-14.4596
xử	-14.46
ask	-14.4601
vài	-14.4601
▁trạc	-14.4612
▁cana	-14.4615
iko	-14.4618
▁celebr	-14.4622
kiếm	-14.463
umm	-14.4632
ilt	-14.4633
▁jak	-14.4634
nway	-14.4643
lula	-14.4654
▁việ	-14.4657
cam	-14.4665
cis	-14.4668
▁kound	-14.4673
▁atlanti	-14.4675
▁stock	-14.4686
▁bro	-14.4687
arrie	-14.4693
hampi	-14.4693
kr	-14.4698
tip	-14.4699
đầy	-14.4719
bốn	-14.4721
huang	-14.4722
enw	-14.4723
khang	-14.4725
illan	-14.4734
▁hea	-14.4737
rown	-14.4738
ride	-14.4745
▁vanderb	-14.4749
▁pharmaci	-14.4755
rigo	-14.4758
torm	-14.4763
lice	-14.4766
otin	-14.4773
yong	-14.4781
áu	-14.4787
▁wos	-14.4802
▁bj	-14.4803
iam	-14.4808
rench	-14.4815
▁ebo	-14.4844
ambo	-14.4851
▁fom	-14.4871
eja	-14.4877
kia	-14.488
ssic	-14.4887
aze	-14.4887
▁roll	-14.4891
đô	-14.49
anten	-14.4902
▁buz	-14.4911
▁exc	-14.4912
▁thorn	-14.4916
renc	-14.4919
sex	-14.4922
owski	-14.4925
eli	-14.4925
erod	-14.4937
wif	-14.4946
zov	-14.4946
enders	-14.4949
▁carm	-14.4954
▁oni	-14.4962
unse	-14.4966
atin	-14.4983
hàm	-14.4989
▁flav	-14.4992
gái	-14.4993
thuê	-14.4994
hef	-14.4997
▁ariel	-14.4998
wski	-14.5002
ux	-14.5003
▁dá	-14.5011
▁versa	-14.5022
trách	-14.5024
obi	-14.5034
▁veli	-14.5038
endy	-14.5039
▁meye	-14.5041
▁kirs	-14.5058
lding	-14.506
lah	-14.506
igal	-14.5063
sot	-14.5071
▁carol	-14.5072
caul	-14.5074
etin	-14.5089
oll	-14.5097
suất	-14.5099
aht	-14.51
mọ	-14.5107
eteo	-14.511
▁cuố	-14.512
dol	-14.5134
▁speak	-14.5139
trụ	-14.5143
▁gamb	-14.5147
▁ivano	-14.5153
unma	-14.5172
cus	-14.5176
avi	-14.5177
rdin	-14.5186
▁jok	-14.519
▁ek	-14.5198
ew	-14.5203
novo	-14.5204
tso	-14.5207
uichi	-14.5208
sĩ	-14.5228
ặng	-14.5235
vali	-14.5253
exim	-14.5256
▁rosa	-14.5258
lĩnh	-14.526
allon	-14.5261
▁maxim	-14.5275
▁tab	-14.5283
lling	-14.5287
mbank	-14.5289
▁die	-14.5294
sain	-14.5297
bảng	-14.5309
sien	-14.5309
▁gille	-14.531
yeo	-14.532
trứng	-14.5323
▁bit	-14.5326
▁jih	-14.533
stra	-14.5333
▁ế	-14.5338
▁sado	-14.5344
hakht	-14.5346
pat	-14.5358
erki	-14.5365
oten	-14.5367
▁nik	-14.5368
▁tol	-14.5378
▁kiế	-14.538
▁oa	-14.5387
nca	-14.5401
ounde	-14.5408
eter	-14.5415
tal	-14.5416
viết	-14.5425
nâng	-14.5427
chế	-14.5439
tical	-14.5441
otor	-14.5482
die	-14.5485
quận	-14.5485
emel	-14.5489
vườn	-14.549
igno	-14.5496
▁rud	-14.5509
▁calder	-14.5513
▁gue	-14.5515
lục	-14.5516
cture	-14.5522
ử	-14.5527
▁ove	-14.554
▁lif	-14.5541
eju	-14.5548
▁grin	-14.5548
irst	-14.5554
▁erez	-14.5557
agata	-14.5558
vna	-14.5558
ivanov	-14.556
gata	-14.5563
ple	-14.5564
tomo	-14.5564
▁watt	-14.5565
giàu	-14.5584
▁stanisla	-14.5588
▁drop	-14.5594
awan	-14.5605
đón	-14.5613
▁boa	-14.5615
ffer	-14.5616
▁merca	-14.5622
▁pavlo	-14.5624
wit	-14.5627
child	-14.5654
impo	-14.566
▁nuri	-14.5663
del	-14.5668
atan	-14.5673
mme	-14.5684
▁rớ	-14.5694
semi	-14.5699
onin	-14.5716
oris	-14.572
niz	-14.5724
▁baro	-14.5731
ouxia	-14.574
dri	-14.5743
usa	-14.5744
lc	-14.5746
asar	-14.5759
nning	-14.576
haw	-14.5761
▁frit	-14.5774
cân	-14.5787
pame	-14.5792
▁od	-14.5794
▁tea	-14.5801
lev	-14.5803
▁tribe	-14.5805
nder	-14.5811
▁barki	-14.5813
cit	-14.5813
suốt	-14.5815
rling	-14.5822
▁bana	-14.5832
oak	-14.5837
adame	-14.5841
sche	-14.5842
tish	-14.5852
▁ld	-14.5863
aide	-14.5875
dha	-14.5888
tru	-14.589
trấn	-14.5897
rard	-14.5904
udan	-14.5906
rave	-14.5911
▁asa	-14.5915
▁er	-14.5921
▁hợ	-14.5923
oà	-14.5923
tải	-14.5934
rmer	-14.5939
▁anth	-14.5947
elo	-14.5949
vat	-14.595
bổ	-14.5964
remou	-14.5965
ìn	-14.5971
boli	-14.5994
ides	-14.6001
▁loá	-14.6002
▁lyn	-14.6008
handle	-14.6023
erdy	-14.6023
cascad	-14.6025
iq	-14.6028
▁wid	-14.6029
▁đậ	-14.6041
kor	-14.6041
eeth	-14.6042
arms	-14.6055
bến	-14.6057
ễm	-14.6066
comple	-14.6092
rama	-14.6098
ant	-14.6099
▁sanch	-14.6099
fluen	-14.61
▁ue	-14.6104
orba	-14.6108
▁kot	-14.6108
sp	-14.6113
oshi	-14.6126
▁insta	-14.6129
stin	-14.6132
▁cherno	-14.6132
achi	-14.6134
tia	-14.6137
▁gok	-14.6141
eaga	-14.6143
môi	-14.6145
hol	-14.6151
▁dolc	-14.6153
uin	-14.6153
sais	-14.6157
erb	-14.6157
caste	-14.616
ab	-14.6171
▁bah	-14.6176
ngton	-14.6178
▁campan	-14.6196
▁nove	-14.6197
▁ble	-14.6219
tận	-14.6227
ffel	-14.6228
sbu	-14.6232
goá	-14.6233
aol	-14.6239
eren	-14.624
orn	-14.6248
clb	-14.6256
aku	-14.6258
bert	-14.626
bj	-14.6262
▁sw	-14.6262
yant	-14.6262
dang	-14.6283
racha	-14.6285
oe	-14.6299
oen	-14.6313
vara	-14.6328
▁mater	-14.6334
▁ted	-14.6336
▁age	-14.6338
▁kak	-14.6345
lte	-14.6355
indonesia	-14.6366
pala	-14.6373
▁alqa	-14.6383
eliz	-14.639
▁vari	-14.6408
ective	-14.6414
dum	-14.6434
anka	-14.6446
phúc	-14.645
▁sham	-14.6453
▁laz	-14.6456
liss	-14.6458
lạnh	-14.6459
▁teng	-14.646
dig	-14.6488
▁strong	-14.649
rash	-14.649
bùa	-14.6494
▁sm	-14.6496
▁lướ	-14.6501
lối	-14.6515
ooye	-14.6517
▁fic	-14.6521
atse	-14.6522
serie	-14.6526
ngji	-14.6528
eef	-14.6539
tắc	-14.654
trí	-14.6558
▁chắ	-14.6566
bơi	-14.6579
▁kow	-14.658
nberg	-14.6587
▁fusi	-14.6612
▁extr	-14.6621
kèm	-14.6625
▁como	-14.6627
amble	-14.6648
vis	-14.6677
▁momo	-14.6679
efer	-14.6692
ein	-14.6693
gueri	-14.6697
sauber	-14.6698
bậc	-14.67
ụi	-14.6702
▁infin	-14.6728
acha	-14.6731
kém	-14.6745
shuai	-14.6748
sửa	-14.6752
▁cli	-14.6756
khánh	-14.6757
swa	-14.677
▁đư	-14.6773
owler	-14.6774
td	-14.678
▁nir	-14.6793
▁carro	-14.6798
chacha	-14.6805
nướng	-14.6816
dex	-14.6831
lean	-14.6833
atana	-14.6836
var	-14.6837
▁alo	-14.6839
york	-14.684
illi	-14.6851
▁gambl	-14.6853
inner	-14.6861
ẽn	-14.6863
▁lev	-14.6864
▁dach	-14.6874
▁ez	-14.6876
leic	-14.6881
▁bea	-14.689
dữ	-14.6895
▁raff	-14.6905
rund	-14.6905
nghi	-14.6906
▁bud	-14.6908
ava	-14.6908
▁lara	-14.6912
due	-14.6919
sài	-14.692
▁rams	-14.6922
orw	-14.6927
nks	-14.6942
nets	-14.6942
▁brav	-14.6955
ariu	-14.6978
nghề	-14.6978
▁chấ	-14.699
hard	-14.6997
▁ling	-14.7007
ntai	-14.7009
▁gos	-14.701
eet	-14.7028
uama	-14.7028
angala	-14.7028
eut	-14.7031
saw	-14.7033
hại	-14.7033
nghiệm	-14.7034
hì	-14.7036
nber	-14.7041
▁rui	-14.7041
derb	-14.7041
▁holo	-14.7045
alem	-14.7054
đương	-14.7055
fin	-14.7056
ẹn	-14.7075
oet	-14.709
▁bard	-14.7092
iron	-14.7105
there	-14.7107
▁nusa	-14.7108
ỏa	-14.7111
aret	-14.7135
algu	-14.7138
▁cardi	-14.7139
béo	-14.7154
▁thiế	-14.7161
msk	-14.7181
anna	-14.7184
nhạc	-14.7198
nep	-14.7203
▁papi	-14.7209
▁mol	-14.7214
gấp	-14.7218
zzar	-14.7225
tuấn	-14.723
thở	-14.7246
viện	-14.725
gam	-14.726
atik	-14.727
eib	-14.7272
ead	-14.7273
nguyễn	-14.7282
gari	-14.7305
rc	-14.7308
▁lop	-14.7313
▁cente	-14.7318
▁chiế	-14.7323
astha	-14.7325
õm	-14.7328
inz	-14.7328
tươi	-14.733
erce	-14.7338
tins	-14.7344
▁leic	-14.7346
oco	-14.7357
▁pear	-14.7362
đồi	-14.7366
▁é	-14.7368
hổng	-14.7374
aud	-14.7374
enal	-14.7377
haba	-14.7378
▁dig	-14.7384
harl	-14.7384
giáp	-14.7388
vov	-14.7391
tsk	-14.7394
cal	-14.7394
marathon	-14.7403
hỏ	-14.7403
▁prot	-14.742
ubnd	-14.7424
jam	-14.7432
cột	-14.744
hiểm	-14.7444
diaz	-14.7448
mật	-14.7459
iu	-14.7464
▁giở	-14.7469
tồn	-14.7469
phối	-14.7472
hống	-14.7473
ells	-14.7487
▁gaba	-14.7488
kiểu	-14.7492
▁blo	-14.7493
thai	-14.7514
bles	-14.7516
waha	-14.7528
▁rat	-14.7528
hò	-14.753
▁musa	-14.755
▁poke	-14.7555
alet	-14.7567
swan	-14.757
▁chọ	-14.7572
rdon	-14.7575
kháng	-14.7576
▁marta	-14.7578
▁franc	-14.7578
iệm	-14.7581
cầm	-14.7583
ser	-14.759
bab	-14.7598
tochi	-14.76
utin	-14.7602
▁fres	-14.7606
uân	-14.7611
thập	-14.7613
lông	-14.762
iago	-14.7632
ym	-14.767
▁cata	-14.7687
muối	-14.7705
eba	-14.7711
lăng	-14.7716
chiếu	-14.7721
súng	-14.7724
vnexpress	-14.7725
chạm	-14.774
lắng	-14.7767
wait	-14.7773
yuk	-14.7792
nhịp	-14.7794
letes	-14.7808
palestine	-14.7814
ợc	-14.7826
cuốn	-14.7826
▁kok	-14.784
mban	-14.7841
đậu	-14.7841
moskva	-14.7842
lumen	-14.7842
thầy	-14.7843
▁jup	-14.7843
hunter	-14.7847
kent	-14.7856
▁rolle	-14.7857
avas	-14.786
esa	-14.7868
▁hus	-14.7869
runner	-14.788
▁bion	-14.7886
▁zeit	-14.7888
rub	-14.7889
orra	-14.7889
nghệ	-14.7894
phận	-14.7894
▁annap	-14.7909
giãn	-14.7914
▁râ	-14.7918
đạp	-14.7919
cart	-14.7926
▁xia	-14.7931
sal	-14.7931
afal	-14.7932
▁thìn	-14.7943
▁elo	-14.7945
entine	-14.7949
ien	-14.7954
▁tys	-14.7956
uta	-14.7958
bott	-14.7961
đám	-14.7965
dolin	-14.7977
jae	-14.7979
lca	-14.7986
▁galla	-14.7987
inci	-14.7991
▁nghiê	-14.8001
nguyện	-14.8009
eso	-14.8015
▁greenl	-14.8026
rực	-14.8027
orel	-14.8033
tôn	-14.8035
▁ngườ	-14.8046
▁hara	-14.8048
bù	-14.8053
saud	-14.8068
rosli	-14.8068
thụy	-14.8071
▁mư	-14.8081
stas	-14.8084
gãi	-14.8086
fontaine	-14.8089
tảng	-14.8098
▁dji	-14.8104
yum	-14.8105
xơ	-14.8109
pes	-14.8109
khổng	-14.8109
brazil	-14.8112
▁cab	-14.8121
cook	-14.8134
rườ	-14.8142
trừ	-14.8147
yi	-14.8154
▁fac	-14.8168
mine	-14.8169
candi	-14.817
eme	-14.817
dứt	-14.8176
▁iz	-14.8191
arza	-14.8192
ashi	-14.8196
võ	-14.8197
ond	-14.8199
thăng	-14.82
▁krista	-14.82
nhảy	-14.8213
đòi	-14.8225
gõ	-14.8235
chặng	-14.8235
▁mg	-14.8236
tranh	-14.8241
wo	-14.8274
▁sd	-14.8283
khuôn	-14.8284
cc	-14.8303
▁kwa	-14.8308
▁neg	-14.8311
đỡ	-14.8317
wembley	-14.8318
lova	-14.834
vđv	-14.834
oles	-14.8347
vững	-14.8349
tric	-14.8353
▁sarco	-14.8356
gỗ	-14.8359
cặp	-14.8361
vy	-14.8363
avid	-14.8374
urze	-14.8383
pass	-14.8387
sút	-14.839
▁alic	-14.8391
bồ	-14.8393
đứa	-14.8397
mảng	-14.8415
oxy	-14.8428
microsoft	-14.8429
oria	-14.8429
▁hass	-14.843
thói	-14.8435
ếc	-14.8437
▁vitor	-14.844
emoti	-14.8445
kto	-14.847
nepal	-14.8471
▁tsi	-14.8485
▁pant	-14.8491
▁aim	-14.8493
ashim	-14.85
vỡ	-14.8504
▁bena	-14.8506
sứ	-14.8513
paris	-14.8515
▁konat	-14.8515
fed	-14.8517
▁pola	-14.8518
alth	-14.8519
ibero	-14.8519
ting	-14.8523
đốt	-14.8533
adstone	-14.8538
trữ	-14.854
cưới	-14.8542
aal	-14.8544
▁haug	-14.8547
""	-14.8568
vaccine	-14.858
chuột	-14.8586
raba	-14.859
lz	-14.8603
tường	-14.8605
gendu	-14.8614
rgus	-14.8629
dắt	-14.8633
▁carda	-14.8637
▁fal	-14.8641
alan	-14.8654
resort	-14.8662
kus	-14.8676
▁allis	-14.8686
huyết	-14.8694
zuckerberg	-14.8695
ucat	-14.8699
nnie	-14.8699
cul	-14.8703
vietnam	-14.8703
▁sod	-14.8704
quer	-14.8708
aver	-14.8711
cắm	-14.8717
cỏ	-14.8735
đèo	-14.8736
uếch	-14.8738
▁leg	-14.8739
buồn	-14.8742
trạm	-14.8745
ril	-14.8758
openai	-14.8761
▁krasn	-14.8766
rủi	-14.8774
đậm	-14.8777
yn	-14.8777
savo	-14.8781
▁choi	-14.8785
redi	-14.879
bùi	-14.8791
▁winds	-14.8793
ngập	-14.8802
▁mitoc	-14.8805
yadev	-14.8806
đĩa	-14.8807
▁wut	-14.8811
rune	-14.8815
▁sid	-14.8821
▁nels	-14.8822
trống	-14.8828
gắt	-14.883
hả	-14.8836
▁sein	-14.886
▁haj	-14.8868
berrie	-14.8881
thung	-14.889
▁oki	-14.8894
hiếc	-14.8896
sách	-14.8905
ings	-14.8906
nhỏ	-14.8906
dư	-14.8909
▁freu	-14.891
đập	-14.8914
▁berc	-14.8928
hẳn	-14.8946
awat	-14.8946
thcs	-14.8953
ubb	-14.8971
rên	-14.8973
▁kas	-14.8976
cure	-14.8982
buôn	-14.899
đàm	-14.9001
▁als	-14.9009
phường	-14.9012
▁fill	-14.9023
dạo	-14.9024
▁mara	-14.9028
uỹ	-14.9037
ist	-14.9054
bon	-14.9057
phẩm	-14.9058
▁phra	-14.9075
mchai	-14.9087
vân	-14.9098
▁cap	-14.91
kie	-14.9101
golo	-14.9102
▁manda	-14.9116
oile	-14.9121
hạng	-14.9122
thẻ	-14.9132
nhau	-14.9136
vỏ	-14.9148
toy	-14.9175
▁quáng	-14.918
opas	-14.918
▁soc	-14.9185
chúa	-14.9186
endi	-14.9189
etric	-14.9195
▁compl	-14.92
ndez	-14.9204
▁anc	-14.9232
▁hav	-14.9237
▁kale	-14.925
saint	-14.9259
cản	-14.9264
lừa	-14.9264
ngã	-14.9264
▁abe	-14.9268
lạm	-14.9269
affle	-14.927
ansar	-14.9272
vẽ	-14.9273
▁trợn	-14.9274
lão	-14.9275
rning	-14.9275
rren	-14.9282
hill	-14.9297
lỡ	-14.9298
bớt	-14.9298
diễu	-14.9303
ax	-14.9309
▁phili	-14.9315
park	-14.9316
dám	-14.9318
michael	-14.9324
▁silve	-14.9329
lỗ	-14.9335
atto	-14.9335
veda	-14.934
din	-14.9342
zum	-14.9348
▁gluco	-14.9351
▁koto	-14.9371
▁sụ	-14.9372
xứ	-14.9376
hạc	-14.9382
rạm	-14.9387
hans	-14.9388
xoay	-14.9391
wood	-14.9396
▁tash	-14.9408
evenson	-14.941
▁melan	-14.9411
leed	-14.9415
▁dau	-14.9417
▁ea	-14.9419
bangkok	-14.9419
▁uno	-14.9433
▁mcca	-14.9438
thoáng	-14.9441
nez	-14.9455
mãi	-14.9457
hước	-14.9458
▁rap	-14.9462
bàng	-14.9481
kki	-14.9482
trào	-14.9485
ellen	-14.9486
▁mấ	-14.9498
▁khố	-14.9503
ideo	-14.9505
▁ă	-14.9511
anto	-14.952
elli	-14.9524
sam	-14.9528
thuật	-14.9529
ranco	-14.9531
uff	-14.9532
đế	-14.9535
chèo	-14.9536
▁hor	-14.9537
▁toma	-14.9542
▁mượ	-14.9543
philippe	-14.9547
camera	-14.955
david	-14.9554
assco	-14.9559
đẻ	-14.9563
alaw	-14.9567
tting	-14.9572
tám	-14.9574
phan	-14.9575
chó	-14.9579
smartphone	-14.9584
calo	-14.9587
roz	-14.9592
▁natal	-14.9593
ểu	-14.9594
arsenal	-14.9594
sukha	-14.9605
khô	-14.9608
fol	-14.9612
▁vố	-14.9614
▁flu	-14.9625
▁anim	-14.9644
rer	-14.9648
zic	-14.9649
oba	-14.965
gậy	-14.9652
▁bil	-14.9659
▁esp	-14.966
argentina	-14.9665
gura	-14.9668
ume	-14.9669
▁sad	-14.9674
▁lar	-14.9677
emp	-14.9679
▁info	-14.9687
▁nikol	-14.9687
hoãn	-14.9695
wc	-14.97
starlink	-14.9706
tford	-14.9707
mil	-14.9726
just	-14.9728
edd	-14.9735
khâu	-14.9736
▁sag	-14.9737
quyến	-14.9738
xào	-14.9743
khoe	-14.9745
tiệm	-14.9748
▁malen	-14.975
kẹt	-14.9759
hắt	-14.9761
diện	-14.9761
dish	-14.9768
far	-14.9774
bách	-14.9792
aring	-14.9793
senho	-14.9794
uba	-14.9811
▁dơ	-14.9824
coust	-14.9826
patrick	-14.9828
terzic	-14.9833
alina	-14.9834
khiêu	-14.9837
dh	-14.9842
ribo	-14.9843
▁uniq	-14.9844
homes	-14.985
sụt	-14.9858
cúm	-14.9862
chén	-14.9872
labo	-14.9877
ifa	-14.989
▁xư	-14.9891
cotti	-14.9892
khơi	-14.9899
sinner	-14.99
đắm	-14.9901
giận	-14.9902
jami	-14.9908
avis	-14.991
afta	-14.9912
pic	-14.9919
ệnh	-14.9921
kesh	-14.9921
trễ	-14.9921
troussier	-14.9923
austin	-14.9924
▁mcmu	-14.9925
thỉnh	-14.993
xoa	-14.9932
▁twit	-14.9936
▁mali	-14.9947
gồm	-14.9947
quét	-14.9951
felice	-14.9961
oop	-14.9964
▁philipp	-14.9965
▁salt	-14.9965
vạn	-14.9967
▁audi	-14.9971
alex	-14.9972
fifa	-14.9976
đuôi	-14.9979
ush	-14.9986
amas	-14.9987
zverev	-14.9989
▁horm	-14.9992
raha	-14.9994
goku	-15.0002
pfizer	-15.0004
zze	-15.0007
ault	-15.001
bẫy	-15.0014
hring	-15.0018
gạch	-15.0019
card	-15.0024
kas	-15.004
ulli	-15.004
xuồng	-15.0045
robot	-15.0047
▁fran	-15.0058
rahim	-15.0066
nhãn	-15.0072
đũa	-15.0075
tròn	-15.0089
khoang	-15.0095
ivsk	-15.0095
▁trè	-15.0096
hrop	-15.0098
▁nguyê	-15.01
quet	-15.01
khoa	-15.0106
cocktail	-15.0114
roger	-15.0121
▁fig	-15.0123
quấy	-15.0127
▁dis	-15.0128
eless	-15.0136
khuyết	-15.0137
antig	-15.0138
tein	-15.0147
▁xyl	-15.0157
gameverse	-15.0169
▁kerr	-15.0169
donetsk	-15.0172
haaland	-15.0174
wk	-15.0176
▁bette	-15.0178
mời	-15.0178
nghiêng	-15.0182
aab	-15.0186
crocs	-15.0188
cẩm	-15.019
▁truyề	-15.0195
hur	-15.0195
eles	-15.0197
peter	-15.0197
chris	-15.0206
cahn	-15.0208
viktor	-15.021
ryn	-15.0215
island	-15.0219
slovenia	-15.022
courtois	-15.0221
maur	-15.0222
pple	-15.0223
dồn	-15.0223
billiards	-15.0228
lubo	-15.0229
ctica	-15.0233
ếp	-15.0241
charles	-15.0245
▁inte	-15.0255
llas	-15.0257
juan	-15.0258
pnj	-15.0258
rafaelson	-15.026
icil	-15.0262
bẩn	-15.0265
logo	-15.0267
best	-15.0268
akli	-15.0273
▁sule	-15.0276
thèm	-15.0277
erik	-15.0281
chật	-15.0287
pso	-15.0299
▁kep	-15.03
toum	-15.0305
nsburg	-15.0309
acc	-15.0315
elen	-15.0315
buông	-15.0317
telli	-15.032
bận	-15.0322
▁guad	-15.0325
inches	-15.0326
▁sail	-15.0328
phuket	-15.0328
tơ	-15.0332
trộm	-15.0334
quỳ	-15.0336
▁taube	-15.0345
khử	-15.0348
full	-15.0349
▁kris	-15.0356
tie	-15.0358
scott	-15.0358
bỗng	-15.0362
▁bulle	-15.0363
▁zeb	-15.0367
nex	-15.0372
etzal	-15.0373
lót	-15.0374
stefan	-15.0376
luis	-15.0377
gentin	-15.0382
lind	-15.0385
navarr	-15.0385
ization	-15.0385
tensi	-15.0387
ganda	-15.0388
phiêu	-15.039
▁kend	-15.0391
blockchain	-15.0394
lật	-15.0404
hum	-15.0407
▁mays	-15.0409
▁thă	-15.041
thổi	-15.0413
gyan	-15.0416
hangseo	-15.0417
sedbergh	-15.0418
casemiro	-15.0419
rashford	-15.0419
▁tră	-15.0419
sur	-15.0423
nguội	-15.0425
ermo	-15.0428
sergey	-15.0432
▁boe	-15.0433
alb	-15.0436
alse	-15.0439
jin	-15.0439
alvi	-15.044
nứt	-15.0442
johansson	-15.0444
pod	-15.0445
technolog	-15.045
▁inva	-15.045
same	-15.045
phenol	-15.0454
cuồng	-15.0459
khiêm	-15.0465
bull	-15.0471
▁gray	-15.0484
christopher	-15.0487
bartender	-15.049
camp	-15.0499
luca	-15.0503
▁busch	-15.0506
idi	-15.0507
chile	-15.0508
ochi	-15.0508
rỗng	-15.0512
fest	-15.0514
scic	-15.0517
tắt	-15.0522
aus	-15.0524
corp	-15.0525
frank	-15.0526
eland	-15.0527
chiêu	-15.0531
▁rese	-15.0532
rbec	-15.0536
xiao	-15.054
evert	-15.0542
carlsen	-15.0543
tiễn	-15.0544
andrew	-15.0544
▁clin	-15.0547
âng	-15.0549
vorayuth	-15.0552
mercedes	-15.0552
vay	-15.0562
arteta	-15.0565
cưỡi	-15.0569
boc	-15.0575
xuống	-15.0575
williams	-15.0579
kí	-15.0579
acv	-15.0584
▁xuyê	-15.0586
toshi	-15.0587
doge	-15.0588
morning	-15.0595
oks	-15.0598
foot	-15.0602
naku	-15.0602
▁rayo	-15.0606
jana	-15.0608
development	-15.0613
church	-15.0614
hemoglobin	-15.0618
leader	-15.0619
retina	-15.0622
fill	-15.0631
daily	-15.0633
blanc	-15.0635
lade	-15.0637
joachim	-15.064
grasshopper	-15.0641
kitchen	-15.0641
churrasc	-15.0642
▁hdb	-15.0642
medicine	-15.0645
▁lights	-15.0646
sưu	-15.0646
jolie	-15.0646
celeb	-15.0647
▁shw	-15.0648
electron	-15.065
study	-15.0651
possible	-15.0652
▁qa	-15.0655
galler	-15.0656
public	-15.0659
niger	-15.066
pris	-15.0663
enni	-15.0663
ampere	-15.0666
gavic	-15.0666
amp	-15.0667
harmony	-15.0667
think	-15.0668
court	-15.0671
stab	-15.0672
halim	-15.0672
live	-15.0674
fr	-15.0675
block	-15.0683
less	-15.0683
alpha	-15.0685
▁mcl	-15.0687
know	-15.0692
hsb	-15.0695
river	-15.0698
xoá	-15.0698
herz	-15.0698
eat	-15.07
vod	-15.0701
arrier	-15.0701
caffe	-15.0702
stock	-15.0707
free	-15.0709
▁fabri	-15.071
▁frederi	-15.0712
▁taks	-15.0712
fun	-15.0714
xà	-15.0716
will	-15.0719
fir	-15.0722
khoá	-15.0724
ammar	-15.0726
thấu	-15.0731
▁unit	-15.0733
ioxi	-15.0734
ongo	-15.0734
uka	-15.0734
▁asi	-15.0735
luck	-15.0735
lve	-15.074
versat	-15.0741
jiang	-15.0743
tional	-15.0744
pick	-15.0749
▁bha	-15.075
step	-15.0754
amora	-15.0763
engine	-15.0764
oliver	-15.0764
poor	-15.0769
▁beyon	-15.0773
alexa	-15.0775
farm	-15.078
bark	-15.0781
creat	-15.0781
myung	-15.0786
vest	-15.08
▁bẽ	-15.0801
turn	-15.0801
mobile	-15.0803
marca	-15.0804
zee	-15.0809
▁ngă	-15.0811
giăng	-15.0815
burne	-15.0819
erg	-15.0821
▁ox	-15.0821
muôn	-15.0821
khasi	-15.0822
▁hấ	-15.0824
maker	-15.0826
mata	-15.0827
bros	-15.0827
▁liệ	-15.0832
emma	-15.0835
▁giovan	-15.0836
▁capuc	-15.0838
▁nhá	-15.084
chốn	-15.0845
majo	-15.0852
scan	-15.0857
nver	-15.0864
▁bry	-15.0866
reiber	-15.087
▁gm	-15.0871
ehli	-15.0874
fro	-15.0876
joy	-15.0876
juli	-15.0885
anga	-15.0886
solution	-15.0889
liya	-15.0889
cent	-15.0892
mw	-15.0898
fabric	-15.0903
▁expres	-15.0905
ddle	-15.0906
chậu	-15.0913
paler	-15.0914
cán	-15.0924
fort	-15.0924
phớ	-15.0925
naire	-15.0927
lulo	-15.0928
húy	-15.0929
răn	-15.093
isp	-15.0933
▁kore	-15.0938
hood	-15.0941
mate	-15.0942
▁ang	-15.0943
▁kyr	-15.0946
blan	-15.0947
▁ngạ	-15.095
ulle	-15.0952
▁clemen	-15.0954
▁loạ	-15.0959
prove	-15.096
▁centr	-15.0961
etti	-15.0962
mitrov	-15.0964
raffe	-15.0964
orentin	-15.0966
aire	-15.0967
right	-15.0968
▁brugg	-15.0971
bagg	-15.0974
lika	-15.0975
▁danhi	-15.0978
▁pase	-15.0981
zol	-15.0982
▁nâ	-15.0983
demar	-15.0995
att	-15.1
corn	-15.1004
antino	-15.101
amid	-15.1012
veur	-15.1018
kup	-15.1018
vidia	-15.1021
sic	-15.1021
four	-15.1022
muô	-15.1023
start	-15.1023
vienne	-15.1031
spor	-15.1032
ryna	-15.1036
▁dim	-15.1042
▁hawai	-15.1042
enne	-15.1043
▁plei	-15.1046
orre	-15.1047
▁trun	-15.1048
fore	-15.1049
măng	-15.1049
como	-15.1051
▁phòn	-15.1053
▁norma	-15.1053
shok	-15.1054
vicha	-15.1059
▁interne	-15.106
▁aleks	-15.1061
erig	-15.1061
▁marriot	-15.1063
ethan	-15.1064
▁champion	-15.1065
eries	-15.1066
astic	-15.1067
agra	-15.1068
mobil	-15.1069
ference	-15.1069
▁deadli	-15.107
efe	-15.1071
harmon	-15.1072
hra	-15.1072
base	-15.1074
▁logistic	-15.1074
▁window	-15.1075
▁caribbe	-15.1076
▁build	-15.1076
▁airline	-15.1076
▁mbapp	-15.1077
evolution	-15.1078
xolotl	-15.1078
▁faceboo	-15.1078
produc	-15.1079
otif	-15.1079
▁lumier	-15.108
sperger	-15.1081
modern	-15.1081
crypt	-15.1081
▁intelligen	-15.1081
▁huffington	-15.1082
▁hulkenberg	-15.1082
tomatic	-15.1082
yyyyyyyyyy	-15.1082
▁shihanou	-15.1082
▁bhara	-15.1082
▁communi	-15.1082
▁lawren	-15.1082
ject	-15.1083
delph	-15.1083
yell	-15.1083
▁austr	-15.1084
nglewood	-15.1084
▁mourin	-15.1084
▁athl	-15.1085
ionist	-15.1085
▁zucker	-15.1085
▁automat	-15.1087
▁indone	-15.1087
▁juve	-15.1087
tsuno	-15.1087
▁techno	-15.1088
estival	-15.1089
kamp	-15.1089
atrice	-15.109
berto	-15.109
sible	-15.109
adelphi	-15.109
▁bartend	-15.1091
ograph	-15.1092
▁vpb	-15.1093
▁learn	-15.1093
ntrep	-15.1094
uction	-15.1096
▁madri	-15.1096
▁sừn	-15.1096
▁krab	-15.1097
gonza	-15.1098
▁sejo	-15.1098
rita	-15.1098
sập	-15.1099
▁piz	-15.11
mpias	-15.11
▁aleksa	-15.1101
kyun	-15.1101
đờ	-15.1102
mía	-15.1102
arel	-15.1103
▁jod	-15.1103
guire	-15.1104
sylv	-15.1105
fact	-15.1107
vanger	-15.1108
job	-15.1109
nquire	-15.1113
rupe	-15.1113
óa	-15.1113
▁pierreem	-15.1115
ouch	-15.1115
▁malays	-15.1118
▁alaba	-15.1119
irates	-15.1119
mouri	-15.112
▁logis	-15.112
▁exp	-15.112
vini	-15.1122
đái	-15.1124
đnd	-15.1124
iths	-15.1124
▁denis	-15.1127
elers	-15.1128
etics	-15.1131
clair	-15.1132
mendi	-15.1136
meter	-15.1136
guar	-15.1136
eref	-15.1137
▁pow	-15.1138
▁expe	-15.1139
bhar	-15.114
▁wlad	-15.1141
▁pete	-15.1141
curiti	-15.1142
▁wana	-15.1144
consin	-15.1144
ktor	-15.1145
▁fif	-15.1145
▁beat	-15.1145
stening	-15.1146
ousin	-15.1147
olan	-15.115
▁adeno	-15.115
cz	-15.1151
trói	-15.1154
arbor	-15.1155
▁effi	-15.1157
carri	-15.1157
▁atal	-15.116
igaf	-15.1164
colo	-15.1165
journe	-15.1165
elope	-15.1167
liê	-15.1169
▁obam	-15.1172
rasak	-15.1177
▁yeo	-15.1177
mh	-15.1179
leste	-15.1179
ellin	-15.1183
▁amad	-15.1185
▁fortin	-15.119
chồn	-15.1193
fsb	-15.1193
▁bezo	-15.1197
zza	-15.1199
▁bene	-15.1199
▁guardio	-15.12
ashle	-15.1206
▁keb	-15.1209
arch	-15.1212
other	-15.1214
▁glo	-15.1217
anor	-15.1218
bund	-15.1222
vals	-15.1222
aksim	-15.1224
pio	-15.1226
turi	-15.1231
unet	-15.1233
▁napol	-15.1234
▁rợ	-15.1236
lộng	-15.1239
ppines	-15.1239
kaj	-15.1244
yannic	-15.1244
bawa	-15.1251
▁queens	-15.1252
ssal	-15.1255
edbe	-15.1255
▁sport	-15.1256
erovi	-15.1257
ikl	-15.1258
sopre	-15.1261
sora	-15.1264
ogan	-15.1268
sette	-15.1269
noki	-15.1269
▁weis	-15.127
ecoi	-15.127
krak	-15.1276
lastin	-15.1278
dựng	-15.1288
rrari	-15.1291
lien	-15.1293
▁luxe	-15.1294
phô	-15.1294
xf	-15.1295
▁hiros	-15.1298
▁acce	-15.13
ysz	-15.131
xp	-15.1311
kawa	-15.1313
ịp	-15.1313
seas	-15.1316
acter	-15.1317
gâ	-15.132
cờ	-15.132
stric	-15.132
itani	-15.1324
rzo	-15.1325
hino	-15.1335
hope	-15.1336
lvi	-15.1344
▁laude	-15.1354
rnard	-15.1357
vne	-15.1361
▁edm	-15.1366
zela	-15.1367
▁hoe	-15.1368
umbl	-15.1368
▁palac	-15.137
oddi	-15.1371
▁norm	-15.1377
conf	-15.1377
phế	-15.1378
zq	-15.1378
▁malay	-15.138
▁arma	-15.1381
▁cost	-15.1388
lavat	-15.139
zhan	-15.1395
▁genera	-15.1398
▁cùn	-15.1403
das	-15.1404
tdt	-15.1404
ssar	-15.1407
ompe	-15.1411
crof	-15.1411
ornle	-15.1414
vie	-15.1415
veral	-15.142
diola	-15.142
▁reti	-15.1424
simo	-15.1425
geme	-15.1426
mount	-15.1427
▁donal	-15.143
comput	-15.1434
ouz	-15.1436
▁frie	-15.1438
belo	-15.144
▁santi	-15.1442
lôi	-15.1443
hyd	-15.1445
ors	-15.1446
ỹ	-15.1448
▁rafa	-15.1455
lomi	-15.1456
▁chels	-15.1457
▁laport	-15.1458
croc	-15.1459
yffi	-15.1459
graphi	-15.1467
hime	-15.1469
▁inq	-15.147
wong	-15.1471
vee	-15.1471
▁moto	-15.1479
arge	-15.1482
gấu	-15.1485
▁weig	-15.1485
chán	-15.149
puchin	-15.1491
▁đuô	-15.1494
▁fes	-15.1495
hony	-15.1495
▁rỗ	-15.1498
yul	-15.151
▁xè	-15.1512
ghal	-15.1513
nepa	-15.1516
eepe	-15.1522
togen	-15.1525
▁forti	-15.1529
rand	-15.1533
orenst	-15.1537
lywood	-15.154
kami	-15.1544
creato	-15.1546
▁mish	-15.1549
đốn	-15.155
ciag	-15.1553
▁deca	-15.1555
aul	-15.1555
sko	-15.1564
eide	-15.1567
lorid	-15.1567
amesh	-15.1569
tunet	-15.1575
anche	-15.1577
ramat	-15.1579
sour	-15.158
▁kave	-15.158
▁vietc	-15.1581
came	-15.1583
naj	-15.1583
▁know	-15.1586
bra	-15.1589
allo	-15.1589
▁metave	-15.1592
efl	-15.1602
▁orio	-15.1602
▁asen	-15.1608
▁shige	-15.1611
taly	-15.1612
ija	-15.1616
▁azu	-15.162
hitec	-15.1622
uffin	-15.1623
nny	-15.1624
▁styl	-15.1632
▁vod	-15.1634
clin	-15.1635
▁conrad	-15.1638
araku	-15.164
mere	-15.164
mâm	-15.1657
▁kilo	-15.1657
tomoti	-15.1663
▁inf	-15.1666
homa	-15.1667
▁martino	-15.1668
▁hope	-15.1668
erab	-15.1669
piac	-15.1676
▁tồ	-15.1677
▁jic	-15.1688
sj	-15.1689
aksha	-15.1696
acl	-15.1698
raj	-15.1698
aller	-15.1698
rợ	-15.1699
elso	-15.1701
▁abram	-15.1702
▁nú	-15.1703
hwan	-15.171
▁matth	-15.1713
tết	-15.1718
mik	-15.172
amon	-15.1721
carlet	-15.1737
ducti	-15.1739
▁stad	-15.174
dna	-15.1742
uza	-15.1743
▁glu	-15.1746
[...]
